/* Copyright 2019 The TensorFlow Authors. All Rights Reserved.

Licensed under the Apache License, Version 2.0 (the "License");
you may not use this file except in compliance with the License.
You may obtain a copy of the License at

    http://www.apache.org/licenses/LICENSE-2.0

Unless required by applicable law or agreed to in writing, software
distributed under the License is distributed on an "AS IS" BASIS,
WITHOUT WARRANTIES OR CONDITIONS OF ANY KIND, either express or implied.
See the License for the specific language governing permissions and
limitations under the License.
==============================================================================*/

// Automatically created from a TensorFlow Lite flatbuffer using the command:
// xxd -i magic_wand_model.tflite > magic_wand_model_data.cc
// See the README for a full description of the creation process.

#include "magic_wand_model_data.h"

// Keep model aligned to 8 bytes to guarantee aligned 64-bit accesses.
alignas(8) const unsigned char g_magic_wand_model_data[] = {
  0x1c, 0x00, 0x00, 0x00, 0x54, 0x46, 0x4c, 0x33, 0x00, 0x00, 0x12, 0x00,
  0x1c, 0x00, 0x04, 0x00, 0x08, 0x00, 0x0c, 0x00, 0x10, 0x00, 0x14, 0x00,
  0x00, 0x00, 0x18, 0x00, 0x12, 0x00, 0x00, 0x00, 0x03, 0x00, 0x00, 0x00,
  0x60, 0x4d, 0x00, 0x00, 0x10, 0x00, 0x00, 0x00, 0x1c, 0x00, 0x00, 0x00,
  0x2c, 0x00, 0x00, 0x00, 0x0c, 0x00, 0x00, 0x00, 0x01, 0x00, 0x00, 0x00,
  0x14, 0x01, 0x00, 0x00, 0x01, 0x00, 0x00, 0x00, 0xdc, 0x00, 0x00, 0x00,
  0x0f, 0x00, 0x00, 0x00, 0x54, 0x4f, 0x43, 0x4f, 0x20, 0x43, 0x6f, 0x6e,
  0x76, 0x65, 0x72, 0x74, 0x65, 0x64, 0x2e, 0x00, 0x12, 0x00, 0x00, 0x00,
  0xb0, 0x00, 0x00, 0x00, 0xa4, 0x00, 0x00, 0x00, 0x98, 0x00, 0x00, 0x00,
  0x8c, 0x00, 0x00, 0x00, 0x80, 0x00, 0x00, 0x00, 0x74, 0x00, 0x00, 0x00,
  0x68, 0x00, 0x00, 0x00, 0x60, 0x00, 0x00, 0x00, 0x58, 0x00, 0x00, 0x00,
  0x50, 0x00, 0x00, 0x00, 0x48, 0x00, 0x00, 0x00, 0x40, 0x00, 0x00, 0x00,
  0x38, 0x00, 0x00, 0x00, 0x2c, 0x00, 0x00, 0x00, 0x20, 0x00, 0x00, 0x00,
  0x18, 0x00, 0x00, 0x00, 0x10, 0x00, 0x00, 0x00, 0x04, 0x00, 0x00, 0x00,
  0x32, 0xb5, 0xff, 0xff, 0x68, 0x00, 0x00, 0x00, 0xf4, 0xb4, 0xff, 0xff,
  0xf8, 0xb4, 0xff, 0xff, 0x42, 0xb5, 0xff, 0xff, 0xf0, 0x01, 0x00, 0x00,
  0x4a, 0xb5, 0xff, 0xff, 0x48, 0x05, 0x00, 0x00, 0x0c, 0xb5, 0xff, 0xff,
  0x10, 0xb5, 0xff, 0xff, 0x14, 0xb5, 0xff, 0xff, 0x18, 0xb5, 0xff, 0xff,
  0x1c, 0xb5, 0xff, 0xff, 0x20, 0xb5, 0xff, 0xff, 0x6a, 0xb5, 0xff, 0xff,
  0x40, 0x0f, 0x00, 0x00, 0x72, 0xb5, 0xff, 0xff, 0x80, 0x47, 0x00, 0x00,
  0x7a, 0xb5, 0xff, 0xff, 0xe0, 0x47, 0x00, 0x00, 0x82, 0xb5, 0xff, 0xff,
  0x60, 0x48, 0x00, 0x00, 0x8a, 0xb5, 0xff, 0xff, 0xc4, 0x48, 0x00, 0x00,
  0x92, 0xb5, 0xff, 0xff, 0xd4, 0x49, 0x00, 0x00, 0x54, 0xb5, 0xff, 0xff,
  0x05, 0x00, 0x00, 0x00, 0x31, 0x2e, 0x35, 0x2e, 0x30, 0x00, 0x00, 0x00,
  0xd4, 0xf2, 0xff, 0xff, 0x08, 0x00, 0x00, 0x00, 0x11, 0x00, 0x00, 0x00,
  0x13, 0x00, 0x00, 0x00, 0x6d, 0x69, 0x6e, 0x5f, 0x72, 0x75, 0x6e, 0x74,
  0x69, 0x6d, 0x65, 0x5f, 0x76, 0x65, 0x72, 0x73, 0x69, 0x6f, 0x6e, 0x00,
  0x0c, 0x00, 0x14, 0x00, 0x04, 0x00, 0x08, 0x00, 0x0c, 0x00, 0x10, 0x00,
  0x0c, 0x00, 0x00, 0x00, 0x20, 0x00, 0x00, 0x00, 0x14, 0x00, 0x00, 0x00,
  0x08, 0x00, 0x00, 0x00, 0xc4, 0x49, 0x00, 0x00, 0x01, 0x00, 0x00, 0x00,
  0x00, 0x00, 0x00, 0x00, 0x01, 0x00, 0x00, 0x00, 0x01, 0x00, 0x00, 0x00,
  0x10, 0x00, 0x00, 0x00, 0x1c, 0x0e, 0x00, 0x00, 0x94, 0x0c, 0x00, 0x00,
  0xd4, 0x00, 0x00, 0x00, 0xa4, 0x46, 0x00, 0x00, 0x84, 0x00, 0x00, 0x00,
  0x24, 0x04, 0x00, 0x00, 0x00, 0x47, 0x00, 0x00, 0x1c, 0x0d, 0x00, 0x00,
  0x30, 0x0e, 0x00, 0x00, 0x00, 0x49, 0x00, 0x00, 0xd0, 0x0c, 0x00, 0x00,
  0xac, 0x0d, 0x00, 0x00, 0xc4, 0x47, 0x00, 0x00, 0x6c, 0x47, 0x00, 0x00,
  0x08, 0x00, 0x00, 0x00, 0x48, 0x0d, 0x00, 0x00, 0x2a, 0xb7, 0xff, 0xff,
  0x10, 0x00, 0x00, 0x00, 0x10, 0x00, 0x00, 0x00, 0x1c, 0x00, 0x00, 0x00,
  0x40, 0x00, 0x00, 0x00, 0x04, 0x00, 0x00, 0x00, 0x01, 0x00, 0x00, 0x00,
  0x2a, 0x00, 0x00, 0x00, 0x01, 0x00, 0x00, 0x00, 0x08, 0x00, 0x00, 0x00,
  0x20, 0x00, 0x00, 0x00, 0x73, 0x65, 0x71, 0x75, 0x65, 0x6e, 0x74, 0x69,
  0x61, 0x6c, 0x2f, 0x6d, 0x61, 0x78, 0x5f, 0x70, 0x6f, 0x6f, 0x6c, 0x69,
  0x6e, 0x67, 0x32, 0x64, 0x2f, 0x4d, 0x61, 0x78, 0x50, 0x6f, 0x6f, 0x6c,
  0x00, 0x00, 0x00, 0x00, 0x4c, 0xb6, 0xff, 0xff, 0x7e, 0xb7, 0xff, 0xff,
  0x10, 0x00, 0x00, 0x00, 0x0f, 0x00, 0x00, 0x00, 0x1c, 0x00, 0x00, 0x00,
  0x34, 0x00, 0x00, 0x00, 0x04, 0x00, 0x00, 0x00, 0x01, 0x00, 0x00, 0x00,
  0x80, 0x00, 0x00, 0x00, 0x06, 0x00, 0x00, 0x00, 0x08, 0x00, 0x00, 0x00,
  0x16, 0x00, 0x00, 0x00, 0x73, 0x65, 0x71, 0x75, 0x65, 0x6e, 0x74, 0x69,
  0x61, 0x6c, 0x2f, 0x63, 0x6f, 0x6e, 0x76, 0x32, 0x64, 0x2f, 0x52, 0x65,
  0x6c, 0x75, 0x00, 0x00, 0x94, 0xb6, 0xff, 0xff, 0xc6, 0xb7, 0xff, 0xff,
  0x10, 0x00, 0x00, 0x00, 0x0e, 0x00, 0x00, 0x00, 0x1c, 0x00, 0x00, 0x00,
  0x44, 0x00, 0x00, 0x00, 0x04, 0x00, 0x00, 0x00, 0x01, 0x00, 0x00, 0x00,
  0x04, 0x00, 0x00, 0x00, 0x06, 0x00, 0x00, 0x00, 0x08, 0x00, 0x00, 0x00,
  0x27, 0x00, 0x00, 0x00, 0x73, 0x65, 0x71, 0x75, 0x65, 0x6e, 0x74, 0x69,
  0x61, 0x6c, 0x2f, 0x63, 0x6f, 0x6e, 0x76, 0x32, 0x64, 0x2f, 0x43, 0x6f,
  0x6e, 0x76, 0x32, 0x44, 0x2f, 0x52, 0x65, 0x61, 0x64, 0x56, 0x61, 0x72,
  0x69, 0x61, 0x62, 0x6c, 0x65, 0x4f, 0x70, 0x00, 0xec, 0xb6, 0xff, 0xff,
  0x00, 0x03, 0x00, 0x00, 0x1a, 0xaa, 0x14, 0xbe, 0x81, 0x15, 0xf6, 0x3e,
  0xd6, 0x7d, 0x59, 0xbe, 0x20, 0x74, 0x17, 0x3e, 0x66, 0x92, 0x1f, 0xbe,
  0x7d, 0xc3, 0x29, 0x3d, 0xf9, 0x50, 0x09, 0xbe, 0x87, 0x24, 0x87, 0xbe,
  0xc9, 0x63, 0xb9, 0xbe, 0x33, 0xba, 0x65, 0x3d, 0x86, 0xf9, 0x75, 0x3e,
  0x57, 0x9e, 0xeb, 0xbd, 0x2d, 0x4a, 0x89, 0x3e, 0x35, 0xe9, 0xb7, 0xbd,
  0x8a, 0xb1, 0x57, 0xbe, 0x2e, 0x3f, 0xcf, 0xbe, 0xfb, 0x72, 0xed, 0x3d,
  0x4d, 0x90, 0x05, 0x3e, 0x79, 0xd8, 0xef, 0x3e, 0xbb, 0x45, 0xed, 0xbc,
  0xc9, 0x0c, 0x7e, 0x3e, 0x7f, 0x7b, 0x94, 0xbe, 0x04, 0xd5, 0x90, 0xbe,
  0x86, 0x57, 0x04, 0xbf, 0xb4, 0xc8, 0x8b, 0x3d, 0xa1, 0x2f, 0x4d, 0xbe,
  0xed, 0x75, 0x54, 0x3d, 0x08, 0x5b, 0x57, 0xbe, 0x61, 0x0b, 0x57, 0x3e,
  0x31, 0x10, 0xa8, 0xbd, 0xe7, 0x81, 0x12, 0xbe, 0xf9, 0x77, 0x42, 0xbd,
  0xcb, 0x2f, 0xe6, 0xbe, 0xa7, 0xca, 0x45, 0xbe, 0xb7, 0x2f, 0x03, 0x3e,
  0xf8, 0x22, 0xc5, 0xbe, 0x1a, 0x42, 0x73, 0xbd, 0xe1, 0x5d, 0x65, 0x3e,
  0x87, 0x78, 0x03, 0xbe, 0x67, 0xbb, 0xe5, 0xbd, 0x70, 0x10, 0xf1, 0x3d,
  0x79, 0x88, 0x0d, 0xbe, 0x95, 0x29, 0x48, 0x3e, 0x8b, 0x06, 0x9f, 0xbe,
  0x71, 0x64, 0x59, 0xbe, 0x93, 0x5e, 0x99, 0xbe, 0x07, 0x9d, 0x1f, 0x3f,
  0x0f, 0xc8, 0x9c, 0xbe, 0xaa, 0xdb, 0x4c, 0xbd, 0x05, 0x74, 0xcc, 0x3d,
  0x26, 0xb6, 0x3f, 0x3a, 0x8d, 0x49, 0x00, 0x3e, 0x2f, 0x98, 0xae, 0xbd,
  0x7e, 0xb1, 0xdd, 0xbd, 0x07, 0xfe, 0x5f, 0x3d, 0x15, 0x26, 0xae, 0xbe,
  0x8e, 0x8f, 0xeb, 0xbc, 0x9c, 0x1b, 0x02, 0x3e, 0x93, 0xa9, 0x48, 0x3e,
  0xc9, 0xd0, 0x0d, 0x3e, 0x36, 0xaa, 0x32, 0x3d, 0xf3, 0x5b, 0x19, 0x3e,
  0x6a, 0xdc, 0x1e, 0xbd, 0xc2, 0x87, 0x99, 0xbe, 0xa0, 0x2e, 0x39, 0x3e,
  0x4d, 0x1a, 0x5f, 0x3e, 0xf2, 0x23, 0xbd, 0x3e, 0xf3, 0x10, 0x03, 0xbc,
  0x8f, 0x98, 0x29, 0x3e, 0xd0, 0x33, 0xb6, 0xbd, 0xbf, 0x74, 0xc3, 0xbe,
  0xa6, 0x2c, 0xe6, 0xbe, 0x31, 0x49, 0x47, 0xbe, 0xb2, 0xcf, 0x4a, 0xbc,
  0xa7, 0x79, 0x92, 0xbc, 0x56, 0x65, 0x73, 0xbe, 0x67, 0x7f, 0xb9, 0x3d,
  0x07, 0x42, 0x5f, 0xbe, 0x36, 0xf7, 0x65, 0xbd, 0xc1, 0xd5, 0x1c, 0x3d,
  0x52, 0x6a, 0xa1, 0xbe, 0x04, 0x56, 0xda, 0x3d, 0xfd, 0x9e, 0x5e, 0x3e,
  0x62, 0xe3, 0xc6, 0xbd, 0xde, 0x8d, 0x85, 0x3e, 0x7b, 0x72, 0x7a, 0x3e,
  0xd4, 0xcd, 0x51, 0xbe, 0x6b, 0x06, 0xf0, 0x3b, 0x4e, 0x31, 0x85, 0x3e,
  0x5a, 0xd5, 0x8a, 0xbe, 0x00, 0x24, 0xba, 0x3e, 0x89, 0x4a, 0xb3, 0xbe,
  0xad, 0xc2, 0xd8, 0xbd, 0x06, 0xbc, 0x7e, 0xbe, 0x93, 0x83, 0xcd, 0x3e,
  0x31, 0xc5, 0x70, 0xbe, 0xb6, 0xc7, 0x56, 0xbe, 0x9d, 0x82, 0xb1, 0x3e,
  0x59, 0x06, 0xe0, 0x3d, 0x5c, 0x2d, 0xa9, 0x3d, 0x6c, 0xcc, 0xfa, 0xbd,
  0xcf, 0x0b, 0x1a, 0x3e, 0x67, 0x0d, 0x5d, 0xbd, 0x44, 0xf7, 0xc6, 0xbe,
  0xf2, 0x6d, 0x4b, 0xbe, 0xc8, 0x6d, 0xeb, 0x3d, 0x7e, 0xa5, 0xf1, 0x3d,
  0x88, 0xa0, 0x24, 0x3e, 0xd5, 0xf4, 0xb2, 0x3e, 0x73, 0xf5, 0xac, 0x3d,
  0xc2, 0x65, 0xff, 0x3d, 0xf7, 0x43, 0x09, 0xbe, 0x19, 0xe0, 0x88, 0x3e,
  0x5b, 0x33, 0xe4, 0x3e, 0x68, 0xaa, 0xdf, 0x3e, 0x2c, 0xeb, 0x7b, 0x3e,
  0x6f, 0xcf, 0x6b, 0x3e, 0x3a, 0x5d, 0xa4, 0xbe, 0xf0, 0x88, 0x13, 0xbe,
  0xa1, 0xf3, 0x68, 0xbe, 0x91, 0xb7, 0x03, 0xbf, 0x36, 0x8b, 0xe5, 0xbd,
  0xbb, 0x34, 0x03, 0xbe, 0xb6, 0x90, 0xc2, 0xbe, 0x88, 0xb0, 0xa6, 0x3e,
  0xca, 0xbf, 0x89, 0xba, 0x72, 0xa0, 0x1c, 0xbd, 0xc9, 0x0b, 0x20, 0x3e,
  0x18, 0x81, 0x5a, 0xbe, 0xea, 0xda, 0x81, 0xbc, 0x5f, 0xb1, 0xe6, 0x3e,
  0x95, 0x20, 0xd9, 0xbe, 0xd6, 0x99, 0xba, 0x3e, 0xe5, 0x4c, 0x91, 0x3e,
  0xef, 0xc5, 0xbf, 0xbe, 0xc0, 0x77, 0x09, 0xbe, 0x05, 0xc5, 0xf3, 0x3e,
  0x9c, 0x34, 0xbe, 0xbd, 0xbd, 0xea, 0x44, 0x3f, 0x59, 0x08, 0x34, 0xbf,
  0x74, 0x80, 0x89, 0xbe, 0xb3, 0xeb, 0xe0, 0xbe, 0x89, 0xd8, 0x0f, 0x3f,
  0x74, 0xd6, 0x3b, 0xbe, 0xaf, 0xf1, 0xce, 0x3d, 0x2c, 0x8f, 0x41, 0x3e,
  0xc4, 0x70, 0xbc, 0x3d, 0x7c, 0xd3, 0x47, 0x3d, 0x83, 0xe2, 0x02, 0xbc,
  0x27, 0xcf, 0xed, 0xbc, 0xdb, 0x7c, 0xff, 0xbd, 0xfd, 0xc9, 0xec, 0xbd,
  0x22, 0x23, 0x61, 0xbd, 0x92, 0xaa, 0x3d, 0xbd, 0xfd, 0xd9, 0x83, 0x3e,
  0xc5, 0xeb, 0x9a, 0xbc, 0x14, 0x2b, 0x10, 0x3e, 0xf8, 0x2c, 0x19, 0x3b,
  0x59, 0x7e, 0x61, 0x3e, 0x23, 0x19, 0x89, 0xbe, 0xb5, 0x7b, 0x8b, 0x3d,
  0x12, 0x6f, 0x95, 0x3e, 0xaf, 0x83, 0xac, 0x3e, 0xe3, 0x11, 0xf8, 0x3d,
  0x0d, 0x2c, 0x46, 0x3e, 0x0d, 0x82, 0x87, 0xbe, 0x8f, 0x8e, 0x57, 0xbe,
  0x15, 0x8e, 0x78, 0xbd, 0xda, 0xfd, 0xe7, 0xbe, 0x2d, 0x66, 0x58, 0x3d,
  0x7d, 0x6f, 0xad, 0xbc, 0x17, 0xc5, 0xa8, 0xbe, 0x90, 0x59, 0x21, 0x3e,
  0xa2, 0xbe, 0x8d, 0xbd, 0xbd, 0xd3, 0x53, 0x3d, 0x12, 0x59, 0x84, 0x3e,
  0xb2, 0x38, 0xf5, 0x3d, 0xfe, 0x56, 0xd9, 0x3d, 0xc6, 0x83, 0x70, 0x3e,
  0xbc, 0x54, 0xab, 0xbe, 0x18, 0xc1, 0x9e, 0x3d, 0x15, 0x35, 0x78, 0x3e,
  0xfa, 0xa0, 0x9a, 0xbe, 0x5d, 0x62, 0xa7, 0xbb, 0x0e, 0xff, 0xa5, 0x3e,
  0x39, 0xf7, 0xa8, 0xbd, 0x3a, 0xe5, 0xf1, 0x3e, 0x44, 0x20, 0xdf, 0xbe,
  0x03, 0x68, 0x68, 0xbe, 0xca, 0xc7, 0xc5, 0xbd, 0xf5, 0xca, 0x0d, 0x3e,
  0x38, 0xc5, 0x59, 0xbe, 0x22, 0xbb, 0xff, 0xff, 0x10, 0x00, 0x00, 0x00,
  0x0d, 0x00, 0x00, 0x00, 0x1c, 0x00, 0x00, 0x00, 0x48, 0x00, 0x00, 0x00,
  0x04, 0x00, 0x00, 0x00, 0x10, 0x00, 0x00, 0x00, 0x04, 0x00, 0x00, 0x00,
  0x01, 0x00, 0x00, 0x00, 0x08, 0x00, 0x00, 0x00, 0x29, 0x00, 0x00, 0x00,
  0x73, 0x65, 0x71, 0x75, 0x65, 0x6e, 0x74, 0x69, 0x61, 0x6c, 0x2f, 0x63,
  0x6f, 0x6e, 0x76, 0x32, 0x64, 0x5f, 0x31, 0x2f, 0x43, 0x6f, 0x6e, 0x76,
  0x32, 0x44, 0x2f, 0x52, 0x65, 0x61, 0x64, 0x56, 0x61, 0x72, 0x69, 0x61,
  0x62, 0x6c, 0x65, 0x4f, 0x70, 0x00, 0x00, 0x00, 0x4c, 0xba, 0xff, 0xff,
  0x00, 0x08, 0x00, 0x00, 0xe3, 0xda, 0x83, 0x3e, 0x0d, 0x1f, 0xa5, 0x3e,
  0xda, 0xc1, 0x7a, 0xbc, 0xca, 0xee, 0x08, 0xbe, 0x27, 0xf1, 0x53, 0xbe,
  0xd2, 0xd8, 0x6a, 0x3e, 0xb6, 0x78, 0x67, 0x3e, 0x18, 0xa9, 0x52, 0xbe,
  0x57, 0x34, 0xd9, 0x3d, 0x98, 0x8c, 0x35, 0x3e, 0x89, 0x7f, 0x30, 0xbd,
  0x0a, 0x4f, 0xa3, 0x3e, 0x56, 0xba, 0x82, 0xbe, 0x98, 0x6d, 0x41, 0xbd,
  0x95, 0xe7, 0xdb, 0x3d, 0xf8, 0x4a, 0x21, 0xbd, 0x9a, 0xc0, 0x0d, 0x3e,
  0xdb, 0x0b, 0x01, 0x3e, 0x44, 0x48, 0xe7, 0xbb, 0x28, 0x8e, 0x2c, 0x3e,
  0xbb, 0xaf, 0xf3, 0x3d, 0x3b, 0x29, 0x99, 0xbd, 0x9e, 0xbc, 0xc8, 0x3d,
  0xf0, 0x3e, 0xb5, 0xbd, 0x0d, 0x01, 0xe1, 0xbd, 0x89, 0x5f, 0xc1, 0x3d,
  0x81, 0x8a, 0x0e, 0x3e, 0xf5, 0x73, 0x8a, 0x3e, 0x7e, 0x22, 0x6a, 0xbd,
  0x48, 0xe5, 0x0a, 0xbe, 0xa3, 0xb4, 0x19, 0x3d, 0x70, 0x8c, 0x84, 0x3c,
  0x16, 0x77, 0xb7, 0x3d, 0x6a, 0x06, 0x6a, 0xbd, 0x2e, 0xc6, 0x87, 0x3e,
  0x92, 0x60, 0xb7, 0x3c, 0xaf, 0x8a, 0x5e, 0xbe, 0xbd, 0xa1, 0xd6, 0xbd,
  0xd5, 0xe7, 0x4d, 0x3e, 0xb4, 0x18, 0x3a, 0xbe, 0x58, 0x7b, 0xe3, 0x3e,
  0xae, 0x40, 0xd4, 0xbe, 0x45, 0xd8, 0x8e, 0xbd, 0xa9, 0x31, 0x40, 0x3e,
  0x64, 0x68, 0xc9, 0xbe, 0x74, 0x21, 0x86, 0xbe, 0x1a, 0xc5, 0x06, 0x3e,
  0xb1, 0x75, 0x48, 0xbe, 0x53, 0x78, 0x43, 0x3e, 0x57, 0xb1, 0xf2, 0xbe,
  0x3d, 0xb9, 0xc6, 0x3d, 0x58, 0xb8, 0x58, 0x3e, 0xb8, 0x83, 0xdd, 0xbe,
  0x12, 0xf9, 0xbf, 0xbe, 0x87, 0xcf, 0xab, 0x3e, 0xad, 0xcf, 0x17, 0xbe,
  0x21, 0xcd, 0xd2, 0x3d, 0xa4, 0xa9, 0x5d, 0xbe, 0x56, 0xea, 0x76, 0x3a,
  0xad, 0x1c, 0x88, 0x3e, 0xc7, 0x6b, 0x7a, 0xbe, 0x5e, 0xbf, 0xca, 0xbe,
  0xb0, 0x07, 0x9c, 0x3d, 0x2a, 0x9c, 0x4a, 0xbd, 0x8a, 0x09, 0x90, 0x3e,
  0x08, 0xf7, 0x4d, 0xbe, 0x5e, 0xcb, 0x32, 0xbe, 0x2e, 0x0d, 0x5a, 0xbe,
  0x8e, 0x57, 0x8a, 0xbe, 0x36, 0x42, 0xad, 0x3e, 0x66, 0x0a, 0x9b, 0xbd,
  0x54, 0x26, 0xf6, 0x3e, 0x49, 0x87, 0x8b, 0x3e, 0xbe, 0xf2, 0x3e, 0xbe,
  0xa0, 0xff, 0xac, 0xbd, 0x03, 0xcc, 0x91, 0xbe, 0xfe, 0x0e, 0x63, 0xbe,
  0x42, 0xa6, 0x6e, 0x3e, 0xb7, 0xff, 0xb2, 0xbe, 0xaf, 0xa2, 0xa0, 0x3e,
  0xaf, 0xa4, 0xd7, 0x39, 0x49, 0x9a, 0x8c, 0x3d, 0xf7, 0x26, 0x2d, 0x3e,
  0x74, 0x0c, 0x25, 0xbf, 0x06, 0xfa, 0x40, 0xbe, 0x10, 0xc8, 0x53, 0x3e,
  0xfa, 0x38, 0xf2, 0xbe, 0x0a, 0xbf, 0x3e, 0x3e, 0xb9, 0x05, 0x9b, 0xbd,
  0xa7, 0x3b, 0x40, 0xbd, 0x00, 0x55, 0xcb, 0x3e, 0xed, 0x8c, 0x14, 0xbf,
  0xdb, 0x9d, 0x81, 0x3c, 0x8a, 0xe1, 0x64, 0x3e, 0xcf, 0x74, 0x30, 0xbf,
  0xa5, 0xb6, 0xb0, 0xbd, 0xe0, 0x9c, 0x80, 0x3e, 0xf3, 0x92, 0xd2, 0xbe,
  0x4e, 0x82, 0x15, 0xbf, 0x0f, 0xc6, 0x6b, 0x3d, 0xb2, 0xa5, 0xe5, 0xbe,
  0x1c, 0xe8, 0x5c, 0x3d, 0xa6, 0x94, 0x99, 0xbd, 0xd3, 0x69, 0xd5, 0x3c,
  0x3f, 0x08, 0x88, 0x3e, 0x6d, 0xd7, 0xbe, 0xbe, 0x7e, 0x54, 0x04, 0xbf,
  0x63, 0x75, 0x59, 0xbd, 0x73, 0xe0, 0xac, 0xbe, 0x7a, 0x77, 0x8f, 0x3e,
  0x45, 0xe9, 0x1f, 0xbe, 0xee, 0x0f, 0x8c, 0xbd, 0x64, 0xee, 0xc9, 0x3e,
  0x53, 0xff, 0x9a, 0xbe, 0x62, 0xea, 0x2a, 0xbe, 0xbc, 0x5f, 0xd1, 0xbd,
  0x40, 0x56, 0xb4, 0xbd, 0x8c, 0xa1, 0xdd, 0x3e, 0xd7, 0x6d, 0xab, 0xbd,
  0x37, 0x67, 0xde, 0x3e, 0xb3, 0x49, 0xe3, 0x3e, 0x4c, 0x4d, 0x20, 0xbe,
  0xfa, 0xa1, 0xa3, 0x3d, 0xef, 0x84, 0x6c, 0xbd, 0x40, 0xb0, 0x21, 0xbe,
  0xe1, 0x45, 0xfa, 0x3c, 0xe4, 0x86, 0x69, 0xbe, 0xfe, 0xcc, 0x73, 0x3e,
  0x81, 0x49, 0xd3, 0xbe, 0x53, 0x5d, 0x53, 0x3e, 0xb5, 0x32, 0x61, 0xbb,
  0xa6, 0x9d, 0xbc, 0x3e, 0x6b, 0x97, 0x8a, 0x3d, 0xa6, 0xb8, 0x27, 0xbe,
  0x8c, 0x72, 0x15, 0x3e, 0x49, 0xb0, 0x1c, 0xbe, 0x7c, 0xb7, 0x44, 0xbe,
  0xfd, 0xcf, 0xde, 0x3d, 0x01, 0xe7, 0x04, 0x3e, 0x5c, 0x16, 0x2b, 0xbe,
  0x53, 0x8a, 0xb5, 0x3d, 0xd1, 0xfd, 0xdf, 0xbd, 0x79, 0xa3, 0x46, 0x3e,
  0xaa, 0x09, 0xec, 0xbd, 0x5c, 0xd1, 0xa4, 0xbe, 0xb3, 0x85, 0xc0, 0x3d,
  0x8a, 0x0a, 0x9b, 0x3d, 0xc6, 0x4b, 0x82, 0x3e, 0x53, 0x38, 0x5d, 0x3e,
  0xd3, 0xe8, 0x0f, 0xbe, 0x7a, 0x1c, 0xd0, 0x3e, 0xb4, 0xff, 0x1c, 0x3d,
  0xef, 0x7f, 0x98, 0xbe, 0xee, 0xfd, 0xb1, 0x3e, 0x0e, 0xd0, 0x0d, 0xbd,
  0x58, 0x55, 0x00, 0x3e, 0xbe, 0x3e, 0x9d, 0x3e, 0xdb, 0xfd, 0x55, 0xbe,
  0x46, 0x3e, 0xd4, 0x3e, 0x17, 0x7e, 0xce, 0xbd, 0x74, 0x7e, 0xb6, 0x3e,
  0x5a, 0x8e, 0x90, 0xbc, 0x1c, 0xd5, 0xe0, 0x3e, 0x72, 0x6a, 0x40, 0xbe,
  0xd9, 0xe8, 0x12, 0x3e, 0x46, 0x75, 0xa9, 0x3d, 0xb6, 0xac, 0xff, 0xbe,
  0x48, 0x19, 0xaa, 0xbd, 0x99, 0xe7, 0x8f, 0x3e, 0xef, 0x82, 0xc5, 0xbd,
  0xd0, 0x1f, 0x3a, 0x3e, 0xe0, 0x91, 0x07, 0xbf, 0xba, 0x9a, 0xe6, 0xbd,
  0x03, 0x3f, 0x7c, 0x3e, 0x09, 0xf8, 0x00, 0xbf, 0xe0, 0x96, 0x40, 0xbe,
  0x7a, 0x63, 0x0e, 0x3e, 0x6d, 0xb1, 0x1a, 0xbe, 0x36, 0xcb, 0x12, 0x3f,
  0x10, 0xba, 0x19, 0xbf, 0x63, 0x15, 0x98, 0xbd, 0xb1, 0xb9, 0xe9, 0xbd,
  0xdf, 0x7f, 0x72, 0xbf, 0x31, 0x57, 0x81, 0xbe, 0x2e, 0x1c, 0x97, 0xbe,
  0x93, 0x2e, 0x22, 0xbe, 0x85, 0x40, 0x2c, 0x3e, 0xd0, 0x62, 0x8d, 0xbe,
  0x40, 0xc8, 0x4a, 0x3e, 0x6f, 0x9e, 0x47, 0x3d, 0x54, 0x79, 0x2b, 0xbf,
  0xbd, 0x2f, 0x17, 0xbe, 0xbb, 0xdd, 0x98, 0x3e, 0x1a, 0x2c, 0xc6, 0x3d,
  0xa3, 0x75, 0x97, 0xbc, 0x42, 0x8d, 0x11, 0xbb, 0x44, 0x37, 0xf8, 0x3c,
  0x61, 0xbd, 0xcb, 0x3e, 0xc3, 0xce, 0x41, 0xbe, 0x86, 0x88, 0x4a, 0x3d,
  0x4d, 0x15, 0xd7, 0x3d, 0xbd, 0x41, 0xec, 0x3d, 0x90, 0x4a, 0x7b, 0x3e,
  0x0b, 0xc6, 0x31, 0xbc, 0xd1, 0x0b, 0x9d, 0xbd, 0x6e, 0x47, 0x3a, 0x3e,
  0xc7, 0x56, 0x72, 0x3c, 0x5c, 0xfa, 0x26, 0xbe, 0x92, 0x8b, 0x96, 0xbc,
  0x39, 0xdb, 0xa8, 0x3e, 0xeb, 0xc2, 0x0e, 0x3e, 0xcc, 0x01, 0xe0, 0xbe,
  0xf4, 0x1e, 0x1c, 0x3e, 0xeb, 0x46, 0xcf, 0x3e, 0x1e, 0x5d, 0xc7, 0xbd,
  0xa3, 0xe8, 0x87, 0xbe, 0x80, 0x7c, 0xa7, 0xbd, 0xc8, 0xff, 0xd2, 0x3d,
  0x1a, 0xb0, 0xf4, 0x3e, 0x1e, 0x34, 0xc6, 0xbe, 0xd2, 0xa9, 0x04, 0xbe,
  0x24, 0x7c, 0xc4, 0x3d, 0x4a, 0xf6, 0x12, 0xbe, 0xa0, 0x4c, 0xdf, 0xbe,
  0x00, 0x9e, 0xd1, 0xbd, 0xdf, 0xd1, 0x01, 0xbc, 0x6f, 0xcb, 0xdb, 0xbc,
  0x27, 0x60, 0x29, 0xbe, 0x19, 0x6e, 0xe7, 0xbd, 0xc1, 0xb9, 0x03, 0x3f,
  0x83, 0x41, 0x0a, 0xbe, 0xfc, 0x29, 0xae, 0xbd, 0x7e, 0x02, 0x87, 0x3e,
  0x9f, 0xcd, 0x0b, 0x3d, 0xa1, 0x3b, 0xe2, 0x3d, 0x81, 0x16, 0x92, 0xbc,
  0x6f, 0xab, 0x9b, 0xbd, 0x25, 0xd2, 0xe5, 0xbd, 0x8a, 0x22, 0x12, 0x3d,
  0x30, 0x97, 0x08, 0xbd, 0xc5, 0xef, 0xae, 0x3e, 0x68, 0x89, 0x82, 0xbe,
  0x8e, 0xd9, 0x88, 0xbc, 0xee, 0xa6, 0xbf, 0xbd, 0xf7, 0x55, 0x15, 0xb9,
  0x83, 0x5d, 0xd4, 0x3d, 0x27, 0xcc, 0x40, 0x3e, 0x9e, 0x40, 0x93, 0x3e,
  0x51, 0xb1, 0x0a, 0x3e, 0xea, 0x94, 0x2f, 0x3d, 0x18, 0x33, 0xb5, 0xbb,
  0x50, 0x66, 0x3e, 0xbe, 0xab, 0xb5, 0xb7, 0x3d, 0xee, 0x47, 0xcf, 0x3e,
  0xda, 0x16, 0xc6, 0xb8, 0x04, 0x53, 0x18, 0xbe, 0x5a, 0x44, 0xce, 0xbe,
  0xfc, 0x50, 0x86, 0x3e, 0xe5, 0x24, 0xc6, 0x3d, 0x65, 0x1b, 0xfc, 0xbe,
  0x81, 0x6f, 0x9e, 0x3c, 0xf0, 0xa5, 0x02, 0xbf, 0x8c, 0xcf, 0xd8, 0xbe,
  0xff, 0xcb, 0xf6, 0xbe, 0x81, 0x6b, 0x82, 0x3c, 0x17, 0xa6, 0x41, 0x3e,
  0x01, 0xd0, 0xd6, 0xbb, 0x03, 0xeb, 0xf4, 0xbd, 0xc0, 0x84, 0xef, 0xbd,
  0x5d, 0x80, 0x94, 0xbe, 0x97, 0x77, 0x43, 0xbd, 0x9b, 0xe0, 0x16, 0xbd,
  0xf9, 0x62, 0x24, 0xbf, 0xdc, 0xd6, 0x8e, 0x3e, 0x8b, 0xaf, 0xaa, 0x3e,
  0xa7, 0x34, 0xd2, 0xbc, 0x5a, 0xa4, 0xa3, 0x3e, 0x06, 0xe1, 0xe6, 0xbe,
  0xd4, 0x73, 0x20, 0xbe, 0xaa, 0xac, 0x0d, 0xbf, 0x3d, 0x5b, 0x1e, 0xbf,
  0x24, 0x04, 0x85, 0x3e, 0x15, 0xbf, 0x83, 0x3e, 0xaf, 0xcd, 0xbd, 0x3e,
  0x8f, 0x87, 0xf4, 0x3e, 0x01, 0x9c, 0x78, 0xbe, 0x85, 0x45, 0x2f, 0xbe,
  0x53, 0x37, 0xee, 0xbe, 0x2c, 0xbb, 0x5f, 0xbe, 0x8e, 0x5b, 0x0e, 0x3e,
  0xf0, 0xb8, 0x4b, 0xbe, 0x9b, 0xd4, 0x6d, 0x3e, 0xb2, 0x09, 0xa0, 0x3e,
  0xef, 0xf9, 0xa9, 0x3e, 0x7d, 0xa8, 0x81, 0xbc, 0x13, 0x1b, 0x1f, 0x3e,
  0xcd, 0x7a, 0xa0, 0xbe, 0x4a, 0x1d, 0xbf, 0x3e, 0xb0, 0x8d, 0xdd, 0xbd,
  0x67, 0x86, 0x2f, 0x3c, 0x95, 0x12, 0x18, 0x3e, 0x97, 0x02, 0x68, 0xbc,
  0x32, 0xd3, 0x03, 0x3d, 0xa9, 0x82, 0x8c, 0x3e, 0x57, 0x13, 0xc5, 0xbe,
  0xdd, 0x90, 0x3c, 0xbc, 0x5f, 0xcc, 0x92, 0xbc, 0x24, 0xa4, 0xf9, 0xbd,
  0x1e, 0xc5, 0xd0, 0x3e, 0x12, 0x6d, 0x37, 0x3e, 0x5f, 0xf1, 0x66, 0x3e,
  0x80, 0x3d, 0x07, 0x3e, 0x96, 0x3f, 0xaa, 0xbe, 0x45, 0x38, 0x2b, 0x3e,
  0x38, 0xce, 0x1a, 0xbe, 0x85, 0xd2, 0x0c, 0x3e, 0xd9, 0x5b, 0x79, 0x3e,
  0x0b, 0x02, 0x16, 0x3e, 0xc5, 0x77, 0x24, 0x3e, 0x83, 0x58, 0x03, 0x3e,
  0x60, 0x73, 0x81, 0x3e, 0x3f, 0xa9, 0x20, 0xbf, 0x0b, 0xe9, 0x34, 0xbf,
  0x81, 0x47, 0xfa, 0xbd, 0x3c, 0x42, 0xec, 0xbe, 0x15, 0x10, 0xd5, 0x3d,
  0x39, 0x45, 0xba, 0xbe, 0xb6, 0xdb, 0xb5, 0xbe, 0x8b, 0x75, 0xd6, 0xbd,
  0x01, 0xed, 0x37, 0xbf, 0xa7, 0xab, 0x22, 0xbf, 0x0f, 0x05, 0x75, 0x3c,
  0xc6, 0xeb, 0x18, 0xbf, 0x91, 0x97, 0x13, 0x3e, 0x42, 0x79, 0x91, 0x3d,
  0xc1, 0x0a, 0x8a, 0x3d, 0xbf, 0xfc, 0x0c, 0x3e, 0xbe, 0x78, 0x1b, 0xbe,
  0x1c, 0xf0, 0x8b, 0xbe, 0xf8, 0x17, 0xd2, 0x3e, 0x24, 0xdb, 0x9d, 0xbe,
  0xe9, 0xe7, 0xe2, 0x3e, 0x86, 0xbe, 0x0d, 0xbe, 0xf0, 0xcd, 0x60, 0x3e,
  0x34, 0xce, 0x1e, 0x3e, 0xa4, 0x6f, 0x65, 0x3e, 0x1a, 0x77, 0xe6, 0x3d,
  0x9f, 0x56, 0x6d, 0x3e, 0xe3, 0x39, 0xf9, 0x3d, 0x9d, 0xf4, 0xb1, 0x3d,
  0xe3, 0x6d, 0x26, 0x3e, 0xdf, 0xf6, 0xd0, 0x3e, 0xea, 0x0a, 0x67, 0x3e,
  0x66, 0x98, 0x2a, 0x3e, 0x3e, 0x24, 0xa7, 0x3d, 0x6f, 0xec, 0x18, 0x3d,
  0x14, 0x65, 0xc3, 0x3d, 0x91, 0xf3, 0x27, 0x3e, 0xa5, 0x8d, 0x68, 0xbd,
  0xdc, 0xcb, 0x12, 0xbe, 0xba, 0xde, 0x9b, 0xbd, 0x7b, 0x42, 0xb2, 0x3e,
  0xfd, 0xed, 0x3c, 0x3e, 0x83, 0x48, 0x6e, 0x3e, 0x27, 0xaa, 0x05, 0x3d,
  0x25, 0x6c, 0xab, 0x3c, 0x1c, 0xd5, 0xf6, 0xbd, 0xa5, 0x1b, 0x0c, 0xbe,
  0x25, 0xae, 0xe4, 0x3d, 0xe6, 0x39, 0x81, 0x3e, 0x3b, 0xc2, 0xbb, 0x3e,
  0xe2, 0xa1, 0x51, 0x3c, 0x31, 0xcd, 0x4d, 0x3e, 0x2d, 0x6a, 0x24, 0x3d,
  0xe1, 0x6d, 0x0c, 0x3d, 0x47, 0xb5, 0x38, 0xbe, 0x2b, 0x78, 0x83, 0x3e,
  0x5a, 0x24, 0x15, 0x3e, 0xed, 0x33, 0x2b, 0x3d, 0x18, 0xab, 0x3d, 0x3e,
  0x77, 0xeb, 0x89, 0x3e, 0x96, 0x98, 0x2e, 0x3e, 0x5d, 0xc1, 0xc8, 0x3d,
  0x2a, 0x6d, 0x09, 0xbe, 0x01, 0x77, 0xa9, 0xbe, 0x5d, 0x83, 0x30, 0x3e,
  0x1a, 0x22, 0x42, 0xbe, 0x1d, 0xcf, 0x0f, 0xbe, 0xc7, 0xe9, 0x2f, 0x3e,
  0x05, 0x7e, 0x82, 0x3d, 0x47, 0x1f, 0x51, 0xbd, 0xb8, 0xb7, 0xb5, 0x3e,
  0x13, 0x85, 0x06, 0xbf, 0x96, 0x24, 0x43, 0xbe, 0x1d, 0x22, 0xb8, 0xbd,
  0x39, 0x9a, 0x69, 0xbd, 0x17, 0x93, 0xce, 0x3d, 0xa7, 0x7f, 0xa6, 0x3d,
  0xe6, 0xe2, 0x99, 0x3e, 0x8f, 0x13, 0xa2, 0xbc, 0xc9, 0x85, 0xd3, 0xbe,
  0x7a, 0xd3, 0x49, 0x3e, 0xac, 0xe7, 0x2c, 0xbd, 0xf7, 0x59, 0x13, 0xbe,
  0x54, 0x1e, 0x36, 0x3e, 0x06, 0x56, 0x59, 0xbe, 0x93, 0xcb, 0x06, 0x3e,
  0x96, 0x47, 0x87, 0x3e, 0x5d, 0x2b, 0xa0, 0xbe, 0xc8, 0x21, 0xb7, 0x3d,
  0xd1, 0x5b, 0x1f, 0xbe, 0x61, 0xd4, 0x1f, 0xbe, 0x1c, 0xa8, 0x4a, 0x3e,
  0xc8, 0x7b, 0x10, 0xbe, 0x61, 0x26, 0x73, 0x3e, 0x77, 0xde, 0x31, 0x3e,
  0x54, 0x0e, 0x9d, 0xbd, 0x47, 0x6d, 0xe8, 0xbd, 0x87, 0x1e, 0x94, 0xbd,
  0x3d, 0x73, 0x13, 0x3e, 0x7f, 0x85, 0x7c, 0x3c, 0x74, 0xb4, 0x97, 0x3e,
  0x53, 0xa8, 0x23, 0xbe, 0xbf, 0x2e, 0x60, 0x3e, 0xed, 0x5a, 0xd4, 0xbd,
  0x77, 0x69, 0x3d, 0x3e, 0x75, 0x56, 0x0d, 0x3e, 0xf1, 0xd1, 0x51, 0x3c,
  0x00, 0xe3, 0x45, 0x3e, 0x3f, 0x60, 0x13, 0x3e, 0x5c, 0x27, 0x9c, 0xbe,
  0x84, 0x9d, 0x6b, 0x3d, 0x14, 0x54, 0x5e, 0xbc, 0x86, 0x1a, 0x87, 0x3e,
  0x52, 0x94, 0xee, 0x3c, 0x45, 0xe1, 0x8c, 0xbd, 0xaf, 0x9c, 0x7d, 0x3e,
  0x83, 0xfb, 0xd7, 0x3e, 0x32, 0x07, 0x89, 0xbe, 0xbd, 0x43, 0x88, 0x3d,
  0x5f, 0x1c, 0x2c, 0x3e, 0x5b, 0x70, 0xac, 0x3e, 0x9f, 0xae, 0x9c, 0xbb,
  0xdf, 0x8d, 0x39, 0xbd, 0x94, 0xb8, 0x99, 0x3b, 0x23, 0xc2, 0x2f, 0x3e,
  0x45, 0x9c, 0x04, 0xbe, 0x96, 0x38, 0x18, 0xbe, 0x08, 0x35, 0xcb, 0xbc,
  0x17, 0xbe, 0x8d, 0x3e, 0x09, 0x82, 0x53, 0x3e, 0x86, 0x85, 0x63, 0xbe,
  0x46, 0x86, 0xb8, 0x3d, 0x3a, 0x6d, 0xf8, 0x3e, 0xd9, 0xb9, 0x1f, 0xbe,
  0x0b, 0x4e, 0x92, 0xbd, 0x3b, 0x63, 0x4d, 0x3d, 0xa0, 0x10, 0x9e, 0x3e,
  0x2f, 0x25, 0x1a, 0xbd, 0x6c, 0x62, 0xf8, 0xbd, 0x65, 0x6a, 0x54, 0x3e,
  0x85, 0xd4, 0x48, 0x3e, 0xa2, 0xe3, 0x35, 0x3d, 0xb0, 0xe7, 0xc9, 0xbd,
  0xd4, 0xaa, 0xb9, 0x3d, 0x36, 0x65, 0x84, 0x3e, 0x6c, 0x27, 0xf0, 0x3d,
  0x47, 0x6b, 0x36, 0x3e, 0x3d, 0xf0, 0xa3, 0xbd, 0x0d, 0xa7, 0x11, 0x3d,
  0xd0, 0x2b, 0x22, 0x3e, 0x55, 0x76, 0x2d, 0xbe, 0xa4, 0x98, 0xd1, 0x3e,
  0x94, 0x75, 0xab, 0xbd, 0xcb, 0xdf, 0x62, 0xbe, 0xaa, 0x4c, 0x88, 0x3e,
  0xb0, 0xd1, 0xd2, 0xbc, 0x63, 0x22, 0x1f, 0x3e, 0xae, 0xcd, 0x29, 0xbc,
  0x8d, 0xa9, 0x6d, 0xbe, 0xa9, 0x72, 0xb1, 0xbe, 0x96, 0xf5, 0x50, 0x3e,
  0x55, 0xf4, 0x82, 0x3e, 0x8d, 0xd4, 0x53, 0xbd, 0x15, 0x60, 0x38, 0xbe,
  0xcd, 0x7a, 0x82, 0xbe, 0xd2, 0x13, 0x98, 0x3e, 0xef, 0x5b, 0x55, 0xbe,
  0x0b, 0x91, 0x35, 0xbe, 0x45, 0x2e, 0x7d, 0xbd, 0x04, 0x00, 0xa2, 0xbd,
  0x53, 0x9f, 0x87, 0x3e, 0x6c, 0x60, 0x0a, 0x3e, 0x2c, 0xc3, 0xae, 0xbe,
  0xb4, 0x43, 0x99, 0x3e, 0x00, 0xde, 0x81, 0xbe, 0xd7, 0xef, 0xc3, 0xbe,
  0xae, 0x11, 0x38, 0x3e, 0xd0, 0x14, 0xca, 0x3e, 0xad, 0xc5, 0x19, 0x3e,
  0xd1, 0x54, 0xa9, 0x3d, 0xef, 0xd4, 0x25, 0xbd, 0xfc, 0xe6, 0x83, 0xbd,
  0x00, 0x26, 0x78, 0xbe, 0xfa, 0x6c, 0xe0, 0xbe, 0xda, 0x36, 0x09, 0x3e,
  0x20, 0x49, 0xcd, 0x3d, 0x01, 0xf5, 0xbb, 0x3d, 0xa8, 0x2c, 0x50, 0x3e,
  0x5f, 0xbc, 0x91, 0xbc, 0x4e, 0xec, 0xe2, 0x3d, 0xa8, 0x3a, 0x30, 0xbe,
  0x82, 0xc3, 0xff, 0xff, 0x10, 0x00, 0x00, 0x00, 0x0c, 0x00, 0x00, 0x00,
  0x1c, 0x00, 0x00, 0x00, 0x34, 0x00, 0x00, 0x00, 0x04, 0x00, 0x00, 0x00,
  0x01, 0x00, 0x00, 0x00, 0x80, 0x00, 0x00, 0x00, 0x06, 0x00, 0x00, 0x00,
  0x01, 0x00, 0x00, 0x00, 0x0c, 0x00, 0x00, 0x00, 0x63, 0x6f, 0x6e, 0x76,
  0x32, 0x64, 0x5f, 0x69, 0x6e, 0x70, 0x75, 0x74, 0x00, 0x00, 0x00, 0x00,
  0x08, 0x00, 0x0c, 0x00, 0x04, 0x00, 0x08, 0x00, 0x08, 0x00, 0x00, 0x00,
  0x10, 0x00, 0x00, 0x00, 0x04, 0x00, 0x00, 0x00, 0x01, 0x00, 0x00, 0x00,
  0x00, 0x00, 0x7f, 0x43, 0x01, 0x00, 0x00, 0x00, 0x00, 0x00, 0x00, 0x00,
  0xe2, 0xc3, 0xff, 0xff, 0x10, 0x00, 0x00, 0x00, 0x0b, 0x00, 0x00, 0x00,
  0x14, 0x00, 0x00, 0x00, 0x2c, 0x00, 0x00, 0x00, 0x02, 0x00, 0x00, 0x00,
  0x01, 0x00, 0x00, 0x00, 0x10, 0x00, 0x00, 0x00, 0x15, 0x00, 0x00, 0x00,
  0x73, 0x65, 0x71, 0x75, 0x65, 0x6e, 0x74, 0x69, 0x61, 0x6c, 0x2f, 0x64,
  0x65, 0x6e, 0x73, 0x65, 0x2f, 0x52, 0x65, 0x6c, 0x75, 0x00, 0x00, 0x00,
  0xf0, 0xc2, 0xff, 0xff, 0x22, 0xc4, 0xff, 0xff, 0x10, 0x00, 0x00, 0x00,
  0x0a, 0x00, 0x00, 0x00, 0x1c, 0x00, 0x00, 0x00, 0x38, 0x00, 0x00, 0x00,
  0x04, 0x00, 0x00, 0x00, 0x01, 0x00, 0x00, 0x00, 0x2a, 0x00, 0x00, 0x00,
  0x01, 0x00, 0x00, 0x00, 0x10, 0x00, 0x00, 0x00, 0x18, 0x00, 0x00, 0x00,
  0x73, 0x65, 0x71, 0x75, 0x65, 0x6e, 0x74, 0x69, 0x61, 0x6c, 0x2f, 0x63,
  0x6f, 0x6e, 0x76, 0x32, 0x64, 0x5f, 0x31, 0x2f, 0x52, 0x65, 0x6c, 0x75,
  0x00, 0x00, 0x00, 0x00, 0x3c, 0xc3, 0xff, 0xff, 0x6e, 0xc4, 0xff, 0xff,
  0x10, 0x00, 0x00, 0x00, 0x09, 0x00, 0x00, 0x00, 0x1c, 0x00, 0x00, 0x00,
  0x40, 0x00, 0x00, 0x00, 0x04, 0x00, 0x00, 0x00, 0x01, 0x00, 0x00, 0x00,
  0x0e, 0x00, 0x00, 0x00, 0x01, 0x00, 0x00, 0x00, 0x10, 0x00, 0x00, 0x00,
  0x22, 0x00, 0x00, 0x00, 0x73, 0x65, 0x71, 0x75, 0x65, 0x6e, 0x74, 0x69,
  0x61, 0x6c, 0x2f, 0x6d, 0x61, 0x78, 0x5f, 0x70, 0x6f, 0x6f, 0x6c, 0x69,
  0x6e, 0x67, 0x32, 0x64, 0x5f, 0x31, 0x2f, 0x4d, 0x61, 0x78, 0x50, 0x6f,
  0x6f, 0x6c, 0x00, 0x00, 0x90, 0xc3, 0xff, 0xff, 0xc2, 0xc4, 0xff, 0xff,
  0x10, 0x00, 0x00, 0x00, 0x08, 0x00, 0x00, 0x00, 0x14, 0x00, 0x00, 0x00,
  0x30, 0x00, 0x00, 0x00, 0x02, 0x00, 0x00, 0x00, 0x01, 0x00, 0x00, 0x00,
  0x03, 0x00, 0x00, 0x00, 0x1a, 0x00, 0x00, 0x00, 0x73, 0x65, 0x71, 0x75,
  0x65, 0x6e, 0x74, 0x69, 0x61, 0x6c, 0x2f, 0x64, 0x65, 0x6e, 0x73, 0x65,
  0x5f, 0x31, 0x2f, 0x42, 0x69, 0x61, 0x73, 0x41, 0x64, 0x64, 0x00, 0x00,
  0xd4, 0xc3, 0xff, 0xff, 0x06, 0xc5, 0xff, 0xff, 0x10, 0x00, 0x00, 0x00,
  0x07, 0x00, 0x00, 0x00, 0x14, 0x00, 0x00, 0x00, 0x20, 0x00, 0x00, 0x00,
  0x02, 0x00, 0x00, 0x00, 0x01, 0x00, 0x00, 0x00, 0x03, 0x00, 0x00, 0x00,
  0x08, 0x00, 0x00, 0x00, 0x49, 0x64, 0x65, 0x6e, 0x74, 0x69, 0x74, 0x79,
  0x00, 0x00, 0x00, 0x00, 0x08, 0xc4, 0xff, 0xff, 0x3a, 0xc5, 0xff, 0xff,
  0x10, 0x00, 0x00, 0x00, 0x06, 0x00, 0x00, 0x00, 0x14, 0x00, 0x00, 0x00,
  0x48, 0x00, 0x00, 0x00, 0x02, 0x00, 0x00, 0x00, 0x10, 0x00, 0x00, 0x00,
  0xe0, 0x00, 0x00, 0x00, 0x30, 0x00, 0x00, 0x00, 0x73, 0x65, 0x71, 0x75,
  0x65, 0x6e, 0x74, 0x69, 0x61, 0x6c, 0x2f, 0x64, 0x65, 0x6e, 0x73, 0x65,
  0x2f, 0x4d, 0x61, 0x74, 0x4d, 0x75, 0x6c, 0x2f, 0x52, 0x65, 0x61, 0x64,
  0x56, 0x61, 0x72, 0x69, 0x61, 0x62, 0x6c, 0x65, 0x4f, 0x70, 0x2f, 0x74,
  0x72, 0x61, 0x6e, 0x73, 0x70, 0x6f, 0x73, 0x65, 0x00, 0x00, 0x00, 0x00,
  0x64, 0xc4, 0xff, 0xff, 0x00, 0x38, 0x00, 0x00, 0xdb, 0xaa, 0x19, 0xbd,
  0x68, 0x41, 0x88, 0x3b, 0x0c, 0xe4, 0x2c, 0x3b, 0x84, 0xb0, 0x96, 0x3b,
  0xbe, 0xcc, 0x59, 0xbc, 0x23, 0x4d, 0xc3, 0x3d, 0x32, 0x5c, 0x00, 0xbc,
  0xf4, 0xcd, 0xcd, 0x3c, 0xaf, 0x19, 0x0f, 0xbe, 0xe4, 0x51, 0x68, 0xbd,
  0x24, 0x10, 0x1e, 0x3d, 0xef, 0x7b, 0x50, 0xbd, 0xe7, 0x74, 0x00, 0xbe,
  0x88, 0x7e, 0x9a, 0x3d, 0xb9, 0x62, 0xa2, 0xbd, 0xfd, 0x3b, 0x6e, 0x3d,
  0xad, 0xd7, 0x93, 0xbe, 0x7b, 0x92, 0x80, 0xbe, 0xc0, 0xf0, 0x68, 0x3e,
  0xc0, 0xcd, 0x4a, 0x3e, 0x16, 0xb8, 0x65, 0xbe, 0x32, 0x6f, 0xa2, 0xbd,
  0x29, 0xb9, 0x93, 0x3c, 0xc4, 0xb3, 0x52, 0x3e, 0x42, 0xcd, 0x31, 0xbe,
  0x14, 0x13, 0xac, 0x3d, 0x22, 0x11, 0x89, 0x3e, 0x6b, 0xa5, 0x8b, 0xbe,
  0xa1, 0x46, 0xfe, 0xbd, 0x05, 0x14, 0x53, 0x3e, 0xd4, 0xd3, 0x85, 0x3d,
  0xc7, 0x9e, 0x7e, 0xbe, 0x9f, 0x92, 0x93, 0xbe, 0x28, 0x05, 0x18, 0xbf,
  0x15, 0x93, 0xea, 0x3e, 0x7f, 0x4b, 0xa2, 0xbe, 0xc1, 0xc3, 0x6d, 0xbe,
  0x09, 0x15, 0xd1, 0x3d, 0x00, 0x87, 0xef, 0x3c, 0x9d, 0x48, 0x1b, 0xbe,
  0xd5, 0x30, 0x74, 0xbd, 0x87, 0xeb, 0xbe, 0xbd, 0x8b, 0xd0, 0x91, 0xbe,
  0xed, 0x2f, 0xc2, 0xbd, 0xd9, 0x5c, 0x87, 0xbc, 0x87, 0xc1, 0xa5, 0x3d,
  0x41, 0x0e, 0xa3, 0xbd, 0x68, 0x40, 0x59, 0xbd, 0x1c, 0xe5, 0x74, 0xbd,
  0x57, 0xf6, 0xc3, 0x3c, 0x4c, 0x17, 0x79, 0x3d, 0xd6, 0x78, 0x85, 0xbd,
  0xf6, 0x17, 0xf4, 0xbd, 0xf7, 0x04, 0x82, 0xbc, 0x66, 0xe8, 0x8a, 0x3a,
  0x80, 0x6f, 0x18, 0xbd, 0x76, 0xc0, 0x6a, 0x3c, 0xe6, 0x5f, 0x14, 0xbd,
  0x2a, 0x12, 0xf7, 0xbc, 0xe3, 0x4c, 0xae, 0x3d, 0x7a, 0xa6, 0x53, 0xbe,
  0x51, 0x40, 0x88, 0xbc, 0x55, 0xf2, 0x13, 0x3d, 0x96, 0x66, 0x15, 0xbd,
  0x02, 0xb1, 0xad, 0x3d, 0x95, 0x0f, 0xeb, 0x3c, 0xd0, 0x84, 0x8b, 0x3d,
  0xed, 0x9a, 0xde, 0xbc, 0x73, 0xcc, 0xb1, 0xbd, 0x43, 0xb2, 0x9c, 0xbe,
  0xcd, 0x3e, 0xa6, 0xbd, 0x53, 0x6a, 0xd3, 0x3d, 0xfd, 0x86, 0x71, 0xbe,
  0x17, 0x09, 0x41, 0xbd, 0x69, 0x20, 0x85, 0xbd, 0x06, 0x2c, 0x8c, 0xbd,
  0xbe, 0x5d, 0xbc, 0xbd, 0x0f, 0x72, 0xf8, 0x3d, 0xe8, 0xe3, 0x1a, 0xbe,
  0xd5, 0x3d, 0xe8, 0xbe, 0x9d, 0x63, 0x70, 0xba, 0x08, 0x28, 0x63, 0xbe,
  0x80, 0x8d, 0x14, 0x3c, 0xb8, 0x65, 0x93, 0xbe, 0x0c, 0x8e, 0x2c, 0x3e,
  0x15, 0xec, 0x4b, 0x3d, 0xbb, 0x1b, 0x9f, 0x3d, 0xd8, 0xee, 0x4a, 0xbd,
  0xae, 0xea, 0x31, 0xbe, 0x74, 0x9c, 0x81, 0x3d, 0xaa, 0x84, 0x21, 0xbe,
  0x99, 0x4b, 0x5d, 0x3e, 0x3b, 0xd1, 0x9d, 0x3e, 0x84, 0xd1, 0x9a, 0x3d,
  0x0d, 0x8a, 0xeb, 0x3d, 0x85, 0x3f, 0x42, 0x3e, 0x7c, 0x57, 0x56, 0xbe,
  0xc4, 0xf5, 0x03, 0x3e, 0x95, 0x11, 0xe9, 0xbd, 0x5d, 0x4d, 0x8e, 0xbe,
  0x54, 0x0f, 0xcb, 0x3d, 0x5e, 0x22, 0x01, 0xbe, 0x69, 0xba, 0x15, 0x3e,
  0xfc, 0x77, 0xf2, 0xbd, 0xdc, 0xc8, 0x9c, 0xbe, 0x6f, 0x53, 0x14, 0x3c,
  0x1d, 0xb0, 0xcc, 0xbd, 0xfc, 0x2c, 0x28, 0x3d, 0x0b, 0xfc, 0xcd, 0x3d,
  0xb6, 0x80, 0x13, 0x3e, 0x44, 0x4c, 0xe9, 0x3d, 0xa0, 0x75, 0x36, 0x3e,
  0x98, 0xfa, 0xbb, 0x3d, 0xa6, 0xd0, 0x82, 0x3e, 0xcf, 0x8f, 0xc5, 0xbe,
  0x09, 0xd4, 0x6f, 0xbd, 0xb3, 0xe9, 0x3e, 0xbe, 0x6d, 0x20, 0xd0, 0xbe,
  0x69, 0xe7, 0x33, 0xbe, 0x4b, 0xcf, 0x21, 0xbe, 0xc4, 0x88, 0xe2, 0xbc,
  0x5b, 0xef, 0x4d, 0xbe, 0x6a, 0x2b, 0x53, 0x39, 0xf8, 0x35, 0x58, 0xbd,
  0x7b, 0xe9, 0x43, 0xbe, 0xcf, 0x28, 0x82, 0x3d, 0x16, 0x6a, 0x9c, 0xbc,
  0xcf, 0x98, 0x81, 0xbc, 0xa1, 0x0d, 0xe8, 0x3d, 0x6d, 0xb2, 0x7b, 0x3c,
  0x71, 0x84, 0x3e, 0xbe, 0x26, 0x3a, 0x27, 0xbc, 0xe9, 0x27, 0xfd, 0xbd,
  0x16, 0xaf, 0x63, 0x3c, 0x7f, 0x64, 0x77, 0xbd, 0x4d, 0xa0, 0x67, 0xbe,
  0x1e, 0x02, 0xf4, 0x3d, 0x35, 0x39, 0xcf, 0xbd, 0x13, 0x1c, 0x50, 0x3e,
  0x4c, 0xd0, 0xdd, 0xbd, 0x46, 0x8e, 0xa5, 0x3d, 0xef, 0x8a, 0x9c, 0xbc,
  0x69, 0x8d, 0x22, 0xbe, 0xb9, 0x54, 0xbd, 0x3d, 0x7c, 0x68, 0xb8, 0x3d,
  0x88, 0xbc, 0xdc, 0x3e, 0x61, 0x69, 0x9b, 0xbe, 0xb4, 0x35, 0x89, 0x3e,
  0x7d, 0xe8, 0xc8, 0x3d, 0x77, 0x23, 0xa4, 0xbe, 0xb7, 0xbf, 0x98, 0xbc,
  0x4b, 0xbf, 0x64, 0x3e, 0x38, 0x2d, 0xa0, 0xbe, 0x96, 0x44, 0x5d, 0x3e,
  0x60, 0xd7, 0x35, 0x3f, 0xbf, 0xa4, 0x1f, 0x3e, 0xcb, 0x3b, 0x80, 0x3e,
  0xb2, 0x43, 0x9f, 0x3e, 0x35, 0xc4, 0xb3, 0x3c, 0xc4, 0xd1, 0xb4, 0x3d,
  0xa3, 0x92, 0xdf, 0x3e, 0x57, 0xa2, 0x8b, 0x3e, 0x63, 0xbb, 0x9d, 0x3c,
  0xd1, 0xdc, 0x7b, 0x3d, 0xdd, 0xbf, 0x83, 0x3e, 0x65, 0xe6, 0x93, 0xbe,
  0x62, 0x76, 0x14, 0x3f, 0x1b, 0x3a, 0x88, 0x3e, 0xee, 0x02, 0x9c, 0xbe,
  0x7a, 0xb2, 0x93, 0x3e, 0xf2, 0x11, 0x90, 0x3e, 0xff, 0x8d, 0x9f, 0x3e,
  0xdd, 0xf5, 0xae, 0x3e, 0xed, 0x70, 0xda, 0x3e, 0xc4, 0xb8, 0xe2, 0x3e,
  0x67, 0xb2, 0xb5, 0xbd, 0x76, 0xa9, 0x98, 0x3e, 0xb5, 0xdd, 0x42, 0x3f,
  0x3c, 0xf1, 0x31, 0xbe, 0x7b, 0x59, 0x6b, 0xbe, 0x82, 0xc1, 0x99, 0x3e,
  0x5a, 0x6b, 0x05, 0x3e, 0xfb, 0x29, 0xc2, 0x3e, 0xb1, 0xcf, 0xf5, 0x3e,
  0x3f, 0x26, 0x4c, 0x3e, 0xf9, 0x83, 0x0a, 0x3e, 0x85, 0x70, 0x01, 0xbe,
  0x49, 0x63, 0xf1, 0x3e, 0x8d, 0x64, 0x08, 0x3e, 0xdb, 0x42, 0x94, 0x3e,
  0x47, 0xf6, 0x2b, 0x3f, 0xc7, 0x97, 0x20, 0x3e, 0xb1, 0xb1, 0x85, 0x3e,
  0xdc, 0x27, 0x6c, 0x3f, 0x02, 0xb0, 0xc3, 0xbe, 0x6f, 0xf8, 0x85, 0xbb,
  0x80, 0x0d, 0x83, 0x3d, 0xc0, 0x66, 0xce, 0x3d, 0x5d, 0xb7, 0x97, 0x3d,
  0xae, 0x00, 0xb1, 0x3d, 0xe0, 0x56, 0x85, 0x3d, 0xb2, 0xeb, 0x81, 0xbe,
  0xb7, 0x6b, 0x2d, 0xbd, 0xec, 0x07, 0xec, 0x3e, 0xa8, 0x18, 0x57, 0xbe,
  0xc2, 0x14, 0x14, 0xbe, 0xd3, 0x3e, 0x84, 0x3e, 0x0a, 0x65, 0x05, 0x3f,
  0x33, 0xdd, 0x48, 0xbd, 0x8f, 0xcb, 0x65, 0x3d, 0x5d, 0xe0, 0xd4, 0xbd,
  0x8d, 0x76, 0x38, 0xbe, 0xe2, 0x03, 0x1a, 0xbd, 0xf6, 0xf0, 0x4a, 0xbc,
  0x36, 0xbb, 0xc2, 0x3d, 0xb3, 0x60, 0x99, 0x3b, 0x5c, 0xb1, 0x82, 0x3d,
  0x34, 0xd9, 0x82, 0x3d, 0x31, 0x96, 0x36, 0x3b, 0x1e, 0x07, 0x22, 0xbd,
  0x79, 0xb5, 0xbc, 0x3b, 0x8c, 0xca, 0x85, 0xbd, 0xd7, 0x54, 0x55, 0x3d,
  0xaf, 0xaa, 0xf5, 0x3d, 0x5e, 0xf6, 0x68, 0x3d, 0xa9, 0x19, 0xf3, 0xbd,
  0x7e, 0x47, 0xaf, 0x3c, 0x53, 0xfc, 0x6d, 0xbd, 0xd4, 0x43, 0x6c, 0xbd,
  0x1f, 0xf3, 0x5d, 0x3d, 0x9e, 0x21, 0x1e, 0xbd, 0x46, 0x7f, 0x2d, 0x3b,
  0x9b, 0xb5, 0x7d, 0x3e, 0x86, 0xc2, 0x0c, 0xbc, 0xd0, 0xb6, 0xac, 0xbd,
  0x69, 0x56, 0x5c, 0xbd, 0x2e, 0x44, 0x80, 0x3c, 0xcf, 0x69, 0x37, 0x3d,
  0x4f, 0x17, 0x8e, 0x3d, 0xb3, 0x64, 0xf9, 0x3d, 0xf4, 0xdf, 0x3d, 0xbe,
  0x4e, 0x8e, 0xd2, 0xbd, 0x99, 0xef, 0xc0, 0xbe, 0x9f, 0x81, 0xff, 0xbe,
  0x82, 0xc9, 0x8f, 0xbd, 0xb5, 0x73, 0x0a, 0x3e, 0x4f, 0xf1, 0x2a, 0x3e,
  0x97, 0x9a, 0x9c, 0xbe, 0xe8, 0xe9, 0xbd, 0x3e, 0x0a, 0xa3, 0x64, 0xbe,
  0x5b, 0x31, 0x31, 0x3d, 0x1d, 0x46, 0x38, 0x3e, 0xf2, 0x11, 0x8c, 0xbe,
  0x23, 0x5a, 0x49, 0x3d, 0xf8, 0xbf, 0xdb, 0xbd, 0x06, 0x13, 0x0c, 0x3e,
  0x9c, 0xf6, 0x02, 0xbe, 0x5d, 0x1a, 0x37, 0xbe, 0x8b, 0x73, 0x21, 0xbd,
  0x9d, 0xd4, 0x5f, 0x3e, 0x75, 0x2d, 0x1c, 0xbe, 0x67, 0xce, 0xae, 0x3e,
  0x45, 0x26, 0x73, 0x3e, 0x18, 0x96, 0x2e, 0x3e, 0x6c, 0xfc, 0x05, 0x3e,
  0x77, 0x37, 0x44, 0xbe, 0x62, 0xc9, 0x16, 0x3e, 0x1a, 0x7f, 0x6a, 0x3e,
  0x7d, 0xf2, 0x95, 0xbd, 0xbc, 0x11, 0x7c, 0x3d, 0x9d, 0x7f, 0xf8, 0xbc,
  0xcd, 0x51, 0x44, 0x3e, 0x28, 0xf9, 0x16, 0x3e, 0xc5, 0x89, 0x64, 0x3e,
  0xb8, 0xaf, 0xb8, 0x3e, 0xdb, 0x2f, 0x2b, 0x3e, 0x12, 0x13, 0x6f, 0xbe,
  0x52, 0xa6, 0x68, 0x3e, 0x47, 0xa0, 0x60, 0x3e, 0x07, 0xb0, 0x26, 0x3e,
  0x88, 0xc5, 0x97, 0x3e, 0x3e, 0xc1, 0x8e, 0xbd, 0x0c, 0xbd, 0x28, 0x3e,
  0xaa, 0x62, 0x98, 0x3d, 0x02, 0xc1, 0x62, 0xbe, 0x1a, 0x83, 0x04, 0x3e,
  0x1c, 0xf9, 0x15, 0x3d, 0xe0, 0x06, 0x73, 0x3d, 0xd4, 0x47, 0xdc, 0xbd,
  0xce, 0x37, 0x83, 0x3e, 0x68, 0x24, 0xd9, 0x3e, 0xe9, 0x30, 0xda, 0x3e,
  0x11, 0xff, 0xdf, 0xbd, 0xc9, 0x0f, 0x4a, 0x3d, 0x5f, 0x43, 0x9e, 0x3e,
  0xeb, 0x61, 0x68, 0x3e, 0x4c, 0x8e, 0x0e, 0x3e, 0xb5, 0x48, 0x98, 0xbd,
  0xe5, 0xbb, 0x49, 0x3e, 0x7f, 0xbd, 0x13, 0xbc, 0xc7, 0x43, 0x05, 0xbe,
  0x2f, 0x1f, 0xd5, 0x3d, 0x6c, 0xdf, 0xa2, 0x3d, 0x67, 0x59, 0x2d, 0xbd,
  0x6d, 0x11, 0xea, 0x3c, 0x05, 0x0b, 0x00, 0xbe, 0x41, 0x05, 0xbe, 0x3e,
  0x84, 0xf2, 0x0b, 0x3f, 0xf7, 0xff, 0x1a, 0xbe, 0x54, 0xc2, 0xf5, 0x3d,
  0xfc, 0xec, 0x99, 0x3e, 0xa3, 0xbb, 0x55, 0xbe, 0xac, 0xd5, 0x9c, 0x3e,
  0x06, 0x01, 0x6a, 0xbd, 0xd3, 0x15, 0x83, 0x3e, 0x60, 0x8e, 0x99, 0xbd,
  0x9c, 0xb3, 0x6e, 0xbe, 0x73, 0x16, 0xd3, 0x3d, 0x41, 0x38, 0xa7, 0x3d,
  0xf5, 0x39, 0x04, 0x3e, 0xa1, 0xef, 0x4e, 0x3d, 0x4b, 0x20, 0x7c, 0xbd,
  0x85, 0x04, 0xad, 0x3e, 0x98, 0x8d, 0x8f, 0x3e, 0xe0, 0x82, 0x83, 0x3d,
  0x40, 0x92, 0xef, 0x3e, 0x69, 0x20, 0xa1, 0x3e, 0xbc, 0x24, 0xb3, 0x3d,
  0x01, 0x71, 0xd7, 0x3c, 0x6a, 0x88, 0xfa, 0xbd, 0x7e, 0xb8, 0xe4, 0x3d,
  0xb1, 0xcd, 0x30, 0xbd, 0x4f, 0x53, 0x3c, 0xbd, 0x8b, 0xf1, 0x50, 0x3d,
  0x49, 0xa9, 0xb6, 0x3c, 0x69, 0x16, 0x82, 0x3e, 0xb1, 0x37, 0x99, 0x3d,
  0xf1, 0xa1, 0xcd, 0xbd, 0x50, 0xfa, 0x49, 0x3e, 0x68, 0x0e, 0x9e, 0x3e,
  0x56, 0x6e, 0xa9, 0xbd, 0x06, 0x9b, 0xd9, 0x3e, 0x99, 0x34, 0x76, 0x3e,
  0x2e, 0xdd, 0x77, 0x3e, 0xe3, 0x26, 0x98, 0x3e, 0x34, 0xbe, 0xdf, 0x3d,
  0x8f, 0xb2, 0x95, 0x3e, 0xa1, 0xc4, 0x56, 0x3d, 0x16, 0xa5, 0x23, 0xbd,
  0xd0, 0xce, 0xce, 0x3d, 0x72, 0x5b, 0xd3, 0x3c, 0x54, 0x5f, 0xf4, 0x3d,
  0x80, 0xa5, 0x65, 0xbe, 0x94, 0x3d, 0xf8, 0xbd, 0x93, 0x59, 0x10, 0x3f,
  0xa6, 0xfe, 0xe6, 0x3e, 0x4e, 0x56, 0xe0, 0xbd, 0x4b, 0xe3, 0xab, 0x3e,
  0xb8, 0x05, 0x82, 0x3e, 0x6c, 0x3f, 0xc7, 0x3e, 0x92, 0xf6, 0xb1, 0x3d,
  0x38, 0xa1, 0xc5, 0xbd, 0x37, 0x22, 0xd9, 0x3e, 0x2c, 0x1b, 0x82, 0xbd,
  0xf5, 0xb2, 0xad, 0xbd, 0xa0, 0x83, 0x8d, 0x3d, 0x52, 0x84, 0xc3, 0x3d,
  0xf1, 0x2f, 0x8d, 0xbe, 0x73, 0x80, 0x2f, 0x3d, 0x51, 0x4e, 0x55, 0xbe,
  0x2d, 0x12, 0x7e, 0x3e, 0xf9, 0xfc, 0x8e, 0x3e, 0x87, 0xc5, 0xd4, 0xbd,
  0x51, 0x2a, 0xb3, 0x3e, 0x92, 0x60, 0xc2, 0x3d, 0xde, 0xdc, 0x67, 0x3e,
  0x54, 0x30, 0x25, 0x3e, 0xac, 0x9b, 0x8e, 0x3d, 0x1a, 0xf0, 0x8e, 0x3e,
  0xd2, 0x26, 0x03, 0xbe, 0x3c, 0x43, 0xd9, 0xbc, 0xf1, 0x20, 0x94, 0x3b,
  0x16, 0xd6, 0xf0, 0x3d, 0x0a, 0xee, 0xcd, 0xbe, 0xb7, 0x89, 0x62, 0xbe,
  0xbc, 0xb0, 0x40, 0xbe, 0xa2, 0xba, 0xa5, 0xba, 0xe0, 0x44, 0xb6, 0x3e,
  0x09, 0x49, 0xbe, 0xbd, 0xaa, 0x1f, 0xff, 0x3d, 0x89, 0x89, 0xe9, 0x3d,
  0xd6, 0x85, 0xc4, 0x3e, 0x14, 0xf8, 0x01, 0xbe, 0x63, 0xce, 0x24, 0x3d,
  0x53, 0xdf, 0x62, 0x3e, 0xe2, 0x5e, 0x83, 0x3d, 0x18, 0x02, 0x11, 0x3e,
  0x97, 0x90, 0x48, 0xbe, 0x1c, 0x27, 0x53, 0xbc, 0x1d, 0x01, 0x00, 0xbd,
  0xff, 0xfc, 0x6b, 0x3c, 0x37, 0xc1, 0xfc, 0x3b, 0x78, 0xa1, 0x6c, 0xbc,
  0xb1, 0x09, 0x0c, 0x3a, 0x36, 0xd8, 0x7c, 0xbd, 0xf5, 0x77, 0x81, 0xbe,
  0x36, 0x29, 0xcd, 0x3d, 0x1c, 0xfe, 0x5b, 0x3e, 0xcb, 0x03, 0x67, 0xbe,
  0xa1, 0x79, 0xa2, 0x3d, 0xfc, 0x4b, 0x86, 0xbd, 0x73, 0x0f, 0xb3, 0xbd,
  0x35, 0x0c, 0x5e, 0x3d, 0x59, 0x9d, 0xa9, 0xbd, 0x05, 0x29, 0x6a, 0x3d,
  0x95, 0xf8, 0x71, 0xbe, 0xde, 0x20, 0x6e, 0x3c, 0xd8, 0xec, 0x7e, 0x3e,
  0x0d, 0xbf, 0x45, 0x3e, 0x88, 0xfa, 0xdb, 0x3d, 0xf2, 0x33, 0x94, 0xbe,
  0x20, 0x95, 0xc1, 0xbe, 0x7b, 0x9d, 0x9d, 0xbe, 0x16, 0x8c, 0x81, 0x3d,
  0xda, 0x67, 0xac, 0xbe, 0x04, 0xa8, 0xbd, 0xbd, 0x18, 0xa7, 0x1d, 0x3e,
  0x26, 0xf2, 0x8b, 0xbe, 0x4f, 0x42, 0x5b, 0xbe, 0x8d, 0xa4, 0x0d, 0x3d,
  0xcf, 0x92, 0x62, 0xbe, 0xb9, 0x83, 0x84, 0xbe, 0x0f, 0x71, 0x9d, 0x3d,
  0x3e, 0xa7, 0xfe, 0x3d, 0x6e, 0x6d, 0x97, 0xbd, 0x5a, 0x7f, 0x30, 0xbd,
  0x87, 0x11, 0x95, 0x3c, 0x47, 0x8e, 0x62, 0xbd, 0xce, 0xcd, 0xbf, 0x3c,
  0xd5, 0xac, 0x39, 0xbc, 0x70, 0xc0, 0xea, 0xbd, 0x52, 0x65, 0xd5, 0xbd,
  0xc1, 0x4a, 0xe4, 0x3c, 0x22, 0x49, 0xc0, 0xbd, 0xc3, 0x14, 0x32, 0x3c,
  0xe0, 0x25, 0xad, 0xbc, 0x58, 0xde, 0xae, 0xbd, 0xef, 0xa2, 0x02, 0xbe,
  0x04, 0xcc, 0x54, 0xbd, 0xc2, 0x2f, 0xe0, 0x3d, 0x05, 0xa5, 0x2f, 0xbd,
  0x6a, 0xa9, 0x5c, 0xbe, 0x4d, 0x04, 0xa4, 0xbd, 0x68, 0x68, 0x93, 0xbd,
  0xd7, 0xae, 0xbf, 0x3d, 0x10, 0x49, 0x33, 0xbe, 0x73, 0xd0, 0x77, 0x3c,
  0xe7, 0x74, 0x97, 0xba, 0xa7, 0x1f, 0x94, 0xbd, 0x68, 0x32, 0xd2, 0x3c,
  0x77, 0x97, 0xb2, 0xbc, 0x60, 0x8d, 0x13, 0xbb, 0x51, 0xde, 0x9d, 0x3d,
  0x18, 0xc8, 0x85, 0xbd, 0x94, 0x55, 0x09, 0xbe, 0xd4, 0x78, 0x97, 0xbe,
  0x6a, 0x13, 0xc6, 0xbe, 0xe3, 0x06, 0x0f, 0xbf, 0x63, 0x59, 0x21, 0x3d,
  0x01, 0x5c, 0x16, 0x3e, 0x8a, 0xba, 0x55, 0x3e, 0xa5, 0xbf, 0xfa, 0xbd,
  0xfc, 0x86, 0x93, 0x3e, 0x5b, 0xe0, 0x27, 0xbd, 0xbc, 0x0a, 0x13, 0xbd,
  0x67, 0x1f, 0x12, 0x3e, 0x78, 0x3e, 0xf1, 0xbd, 0x41, 0x59, 0x4d, 0xbe,
  0xd4, 0x26, 0xe2, 0xbd, 0x1c, 0x8d, 0xa0, 0x3e, 0x80, 0xb1, 0x7d, 0x3d,
  0x3d, 0x58, 0xc8, 0x3c, 0xcb, 0x06, 0x15, 0xbe, 0x42, 0x34, 0xa8, 0x3e,
  0x92, 0x00, 0x96, 0xbd, 0x7f, 0xc0, 0x83, 0x3e, 0x95, 0x38, 0xff, 0x3e,
  0x3c, 0x72, 0x5c, 0x3d, 0x19, 0xef, 0x90, 0x3e, 0xbc, 0x69, 0x9f, 0xbd,
  0xcc, 0x1f, 0x90, 0x3e, 0x63, 0xb2, 0x68, 0x3d, 0x66, 0x88, 0xa8, 0xbe,
  0xcc, 0x00, 0x29, 0xbd, 0xe1, 0xca, 0xa1, 0x3d, 0x85, 0x47, 0x6b, 0x3e,
  0x9e, 0xe1, 0x17, 0x3d, 0x19, 0xa8, 0x45, 0x3e, 0x38, 0x44, 0x95, 0x3e,
  0x07, 0x05, 0xb3, 0x3e, 0x4f, 0xbd, 0xff, 0xbd, 0x4e, 0xd0, 0xe5, 0x3d,
  0xf5, 0x47, 0x02, 0x3f, 0x64, 0x66, 0x1a, 0x3e, 0x9b, 0x59, 0xef, 0x3d,
  0x0f, 0x18, 0x5a, 0xbe, 0x28, 0xd9, 0x37, 0xbc, 0xaf, 0xdb, 0xba, 0x3c,
  0xc3, 0x09, 0x24, 0xbe, 0x10, 0x1f, 0x1c, 0x3e, 0x55, 0x68, 0x34, 0xbd,
  0xa3, 0xaf, 0x8b, 0x3d, 0x08, 0x83, 0xb8, 0xbd, 0x2b, 0x9c, 0x3e, 0x3e,
  0x96, 0xef, 0x6f, 0x3e, 0xa8, 0xfb, 0xf7, 0x3e, 0x47, 0x3b, 0x85, 0xbe,
  0xfe, 0x21, 0x37, 0x3d, 0xa4, 0xda, 0x90, 0x3e, 0xea, 0xa2, 0xa4, 0x3e,
  0x7a, 0x5e, 0x63, 0x3e, 0xe1, 0x43, 0xca, 0xbd, 0xf0, 0xff, 0x56, 0x3d,
  0xe9, 0x38, 0x15, 0xbe, 0xe7, 0x37, 0x81, 0xbe, 0x04, 0xe6, 0xad, 0x3d,
  0x30, 0xa7, 0x00, 0x3e, 0x10, 0xdd, 0x84, 0x3d, 0x41, 0x14, 0x23, 0xbe,
  0x8d, 0xc7, 0x14, 0x3d, 0xa1, 0x42, 0xd5, 0x3e, 0xcb, 0x3f, 0xbd, 0x3e,
  0x56, 0x81, 0xc7, 0xbd, 0x0e, 0x1a, 0x2c, 0x3e, 0xef, 0x6e, 0x8d, 0x3e,
  0x75, 0xce, 0x38, 0xbd, 0x7b, 0xdb, 0xf7, 0x3d, 0x32, 0x38, 0xf8, 0xbd,
  0xb9, 0x1d, 0x41, 0x3e, 0x57, 0x3c, 0xd4, 0x3d, 0xe2, 0xfb, 0x62, 0xbe,
  0x76, 0x99, 0xd6, 0x3d, 0x89, 0x10, 0x43, 0x3d, 0x4b, 0xab, 0x4e, 0x3e,
  0x73, 0xe3, 0xc2, 0xbd, 0x4e, 0x0b, 0x1d, 0xbe, 0xed, 0x9b, 0x84, 0x3e,
  0x65, 0xb6, 0xd2, 0x3e, 0x9c, 0xb8, 0x0e, 0xbd, 0x02, 0x24, 0xb8, 0x3e,
  0x47, 0x67, 0xed, 0x3e, 0xda, 0x75, 0x1a, 0xbe, 0xad, 0x1c, 0x58, 0xbe,
  0xc1, 0xd7, 0xc4, 0x3b, 0x4b, 0x60, 0x9d, 0x3e, 0xac, 0x04, 0xe1, 0x3d,
  0x30, 0x31, 0x30, 0xbe, 0x50, 0x83, 0x0a, 0x3e, 0x1d, 0x6e, 0xa0, 0xbc,
  0x53, 0x17, 0x40, 0x3e, 0x93, 0x01, 0x2a, 0xbe, 0xc5, 0x3a, 0x8c, 0xbd,
  0x4e, 0xa8, 0xf8, 0x3d, 0xf4, 0x4a, 0xeb, 0x3e, 0xce, 0xac, 0xed, 0xbb,
  0xf3, 0x91, 0xd2, 0x3e, 0x89, 0x60, 0xa3, 0x3e, 0xc9, 0x92, 0x23, 0x3d,
  0x87, 0x50, 0x5e, 0x3e, 0x93, 0xa6, 0xf1, 0x3c, 0x1a, 0x61, 0xd1, 0x3e,
  0xed, 0xa9, 0x32, 0x3e, 0x31, 0x35, 0xcc, 0xbb, 0x48, 0xb3, 0xe0, 0xbc,
  0x17, 0xa5, 0x43, 0x3e, 0x1d, 0x80, 0xc5, 0xbc, 0x9b, 0x40, 0x09, 0xbe,
  0x26, 0x5e, 0x19, 0xbe, 0xb0, 0xd0, 0xfc, 0x3e, 0x3a, 0x95, 0x0d, 0x3f,
  0x05, 0x3e, 0x03, 0xbe, 0x31, 0x59, 0xc2, 0x3d, 0x5f, 0x7d, 0xe7, 0x3d,
  0x51, 0xa5, 0x40, 0x3e, 0x93, 0xe5, 0x4e, 0x3e, 0xf8, 0xe0, 0xe5, 0xbd,
  0x0b, 0xac, 0x68, 0x3e, 0xeb, 0x98, 0x4c, 0xbd, 0x17, 0xc9, 0xab, 0xbd,
  0x39, 0x33, 0x1f, 0x3e, 0xe0, 0x57, 0x05, 0x3e, 0x5f, 0x0d, 0x8a, 0xbe,
  0xe5, 0x70, 0x02, 0x3e, 0x9e, 0x68, 0x81, 0xbe, 0x32, 0x2c, 0x93, 0x3e,
  0x46, 0xbc, 0xb2, 0x3e, 0x0e, 0x4d, 0x17, 0x3a, 0xaf, 0x6d, 0xdf, 0x3d,
  0x81, 0xd7, 0x53, 0x3e, 0x7a, 0x8d, 0x9e, 0x3e, 0xd1, 0x3b, 0xbc, 0x3e,
  0xba, 0xb3, 0xa4, 0x3d, 0xe6, 0x63, 0xa3, 0x3e, 0x77, 0xae, 0x70, 0x3d,
  0x12, 0x2d, 0xd2, 0xbc, 0x3d, 0xc6, 0x88, 0x3c, 0x08, 0x31, 0x9e, 0x3d,
  0x97, 0x22, 0xc2, 0xbe, 0x6d, 0xe4, 0x07, 0xbe, 0x3e, 0x5b, 0xa8, 0xbe,
  0xd9, 0x50, 0x0c, 0x3e, 0x97, 0xfc, 0x05, 0x3e, 0x40, 0xfd, 0x25, 0xbe,
  0x93, 0x28, 0x65, 0x3d, 0x91, 0xba, 0xbd, 0x3d, 0x24, 0x7e, 0xf4, 0x3e,
  0xd9, 0x78, 0x55, 0x3d, 0x84, 0x9a, 0x20, 0x3d, 0xdb, 0xd1, 0x6c, 0x3e,
  0xc3, 0x79, 0x34, 0xbe, 0xc7, 0xd1, 0xbf, 0x3d, 0x82, 0x83, 0xa1, 0x3d,
  0xb8, 0xb8, 0x19, 0x3e, 0x09, 0x53, 0x37, 0xbe, 0x4c, 0x74, 0x2d, 0xbd,
  0xfb, 0x2b, 0x72, 0x3e, 0x68, 0x01, 0x07, 0xbe, 0x57, 0x00, 0x04, 0xbd,
  0x9d, 0x76, 0x57, 0xbe, 0x2b, 0x32, 0xd3, 0xbe, 0x54, 0x9f, 0x28, 0x3e,
  0x49, 0x05, 0x29, 0x3e, 0xc7, 0x6d, 0xd5, 0xbd, 0x46, 0xa8, 0x24, 0xbc,
  0x14, 0xd3, 0x0d, 0x3e, 0x21, 0x3b, 0x0a, 0xbe, 0x4b, 0x21, 0x7d, 0x3d,
  0x0e, 0x08, 0x57, 0x3d, 0x6d, 0xd9, 0xad, 0x3e, 0xbc, 0xca, 0x63, 0xbe,
  0x53, 0x0b, 0x26, 0x3c, 0xd1, 0x62, 0x73, 0x3e, 0x48, 0x05, 0x80, 0xbd,
  0xf3, 0xae, 0xdb, 0x3d, 0xb0, 0x5b, 0x34, 0xbe, 0x23, 0xe8, 0xc8, 0xbe,
  0xa9, 0xd5, 0xb5, 0xbe, 0x99, 0xf4, 0x09, 0x3e, 0xd0, 0x5b, 0x84, 0xbe,
  0x8b, 0x1e, 0x20, 0xbe, 0x57, 0x96, 0x63, 0x3d, 0xa5, 0x46, 0x4f, 0xbe,
  0xb1, 0x57, 0x86, 0xba, 0x52, 0x1d, 0x86, 0xbe, 0xdc, 0xec, 0x00, 0xbe,
  0x72, 0xb8, 0xde, 0xbe, 0xe4, 0x57, 0x96, 0x3c, 0x5b, 0xa9, 0x76, 0xbc,
  0xb7, 0xd7, 0x2c, 0xbd, 0x9d, 0xcd, 0x73, 0xbd, 0x98, 0xed, 0xab, 0xbc,
  0x1c, 0xbe, 0xfd, 0xbd, 0x02, 0xad, 0x9d, 0xbc, 0xd5, 0xee, 0x41, 0x3d,
  0x56, 0x4b, 0x13, 0xbe, 0x4c, 0xfd, 0x9c, 0xbd, 0x5a, 0xf9, 0x13, 0xbc,
  0xe8, 0xb4, 0xd8, 0xbc, 0x14, 0xbf, 0x6c, 0x3d, 0x7d, 0x62, 0x7f, 0xbd,
  0x06, 0x59, 0xe7, 0xbc, 0xc4, 0xe0, 0xc6, 0x3d, 0x4f, 0xfb, 0x9b, 0xbd,
  0xcb, 0x94, 0x99, 0x3d, 0x5b, 0x2e, 0x0c, 0xbd, 0x48, 0x94, 0x04, 0xbe,
  0xd6, 0x6d, 0x1d, 0x3d, 0x0a, 0xa6, 0x46, 0xbc, 0x3b, 0x2b, 0xd4, 0x3d,
  0x14, 0x2c, 0xe9, 0x3b, 0xae, 0xd2, 0x66, 0x3e, 0x09, 0xdf, 0x5b, 0x3d,
  0x92, 0xae, 0x58, 0xbd, 0xb2, 0xff, 0x1c, 0xbc, 0xcc, 0xda, 0x16, 0x3e,
  0x76, 0x78, 0x0b, 0x3e, 0xd3, 0x10, 0xd5, 0xbd, 0x5e, 0xea, 0xfb, 0x3d,
  0xc8, 0xd8, 0x5e, 0xbe, 0xfd, 0x04, 0x17, 0x3d, 0xfd, 0x92, 0xf8, 0xbe,
  0x4c, 0x1a, 0xa3, 0xbe, 0xa1, 0x88, 0xa6, 0xbb, 0x2b, 0x25, 0x25, 0x3e,
  0x59, 0x7d, 0x60, 0x3e, 0x23, 0xc7, 0x88, 0xbe, 0x27, 0x77, 0x60, 0x3e,
  0xc1, 0xfd, 0xeb, 0xbd, 0xdd, 0xf0, 0x4b, 0xbe, 0xf8, 0xb3, 0x99, 0x3d,
  0xc1, 0x29, 0x38, 0x3d, 0x16, 0x47, 0x57, 0xbe, 0x91, 0x26, 0x37, 0xbe,
  0xe4, 0xb0, 0xa0, 0x3e, 0x48, 0xae, 0xf9, 0xbd, 0x94, 0x3d, 0x21, 0x3c,
  0x9d, 0xc0, 0xfd, 0xbe, 0x2d, 0x20, 0xc3, 0x3d, 0xe2, 0xdb, 0x1a, 0x3e,
  0x80, 0x1b, 0xcc, 0xbc, 0xbd, 0x9e, 0x87, 0x3e, 0x1f, 0x6b, 0xe1, 0x3c,
  0x76, 0x28, 0x3a, 0x3e, 0x02, 0xa9, 0xa1, 0xbd, 0xb2, 0xa7, 0x31, 0xbc,
  0xda, 0xe1, 0xdb, 0x3d, 0xef, 0x5e, 0x89, 0xbd, 0x85, 0xec, 0x0a, 0xbd,
  0xbb, 0x0d, 0xc6, 0xbd, 0x2e, 0xe9, 0xc3, 0x3e, 0xfe, 0x1d, 0x02, 0x3e,
  0xad, 0x27, 0xa4, 0x3e, 0xc5, 0xe5, 0x02, 0x3e, 0xed, 0xaa, 0x56, 0x3e,
  0x0f, 0x71, 0x81, 0xbe, 0x07, 0xdd, 0x3b, 0x3e, 0xf0, 0x4c, 0xcf, 0x3d,
  0x83, 0x65, 0x96, 0x3c, 0xa1, 0x5b, 0xc2, 0x3e, 0xa2, 0x5b, 0x02, 0xbe,
  0x9b, 0xc2, 0x73, 0x3e, 0xde, 0xf7, 0x6c, 0xbc, 0x3b, 0xcd, 0xe4, 0x3c,
  0xec, 0x33, 0x86, 0xbd, 0xe0, 0x81, 0x4e, 0xbe, 0xfb, 0x75, 0xbf, 0x3e,
  0x83, 0x3a, 0xb7, 0xbd, 0x70, 0x58, 0xc8, 0x3e, 0x45, 0x4c, 0x0c, 0x3e,
  0xc4, 0x02, 0x87, 0x3e, 0x94, 0x5b, 0x5b, 0xbe, 0x24, 0xb0, 0x89, 0x3e,
  0xc8, 0x8f, 0x6d, 0x3d, 0xc4, 0xa3, 0xc3, 0x3d, 0x49, 0xec, 0x0e, 0x3f,
  0x5f, 0xb8, 0xc4, 0xbd, 0x4b, 0x55, 0x4b, 0x3e, 0x8c, 0xbf, 0x14, 0xbe,
  0xe6, 0xce, 0xde, 0x3c, 0xc0, 0x17, 0xf7, 0x3d, 0xa8, 0xcf, 0x78, 0x39,
  0x0e, 0xc8, 0x35, 0x3e, 0x94, 0x7b, 0x2d, 0xbd, 0x13, 0x82, 0x75, 0xbd,
  0xfb, 0x86, 0x07, 0x3e, 0xc1, 0x3a, 0x91, 0x3e, 0x6e, 0xf6, 0x7c, 0xbe,
  0xa1, 0xe4, 0x8d, 0x3e, 0x10, 0x98, 0x2f, 0x3e, 0x3a, 0x40, 0x99, 0x3d,
  0x3d, 0x09, 0xc3, 0x3e, 0xe7, 0x01, 0x52, 0xbe, 0x3a, 0x05, 0xc1, 0xbd,
  0xc0, 0xca, 0x3f, 0xbc, 0x8d, 0x36, 0x83, 0xbd, 0xa2, 0x2f, 0x1f, 0xbd,
  0xfe, 0x3b, 0x3c, 0xbe, 0x73, 0x24, 0x73, 0x3e, 0xe6, 0x80, 0x01, 0xbe,
  0xf4, 0xa7, 0xb1, 0xbe, 0xfe, 0x82, 0xaa, 0x3e, 0x48, 0x82, 0xa6, 0x3d,
  0x2f, 0x97, 0x25, 0xbe, 0x49, 0xcf, 0x94, 0x3e, 0x18, 0x57, 0x8f, 0x3d,
  0x55, 0xb4, 0xd6, 0xbd, 0x01, 0x1a, 0x45, 0x3e, 0x84, 0xf4, 0x38, 0xbe,
  0x3c, 0xe2, 0x56, 0xbe, 0x4e, 0x60, 0xd5, 0x3d, 0xe8, 0xe1, 0x2a, 0xbb,
  0xf6, 0xf3, 0xaf, 0xbd, 0x75, 0xf5, 0x8a, 0xbd, 0xa1, 0x7b, 0x28, 0x3e,
  0xdc, 0x38, 0x41, 0xbe, 0x30, 0xc1, 0xa9, 0xbe, 0xd2, 0x96, 0x02, 0x3e,
  0x77, 0x3c, 0x5d, 0xbe, 0x55, 0x36, 0x95, 0xbd, 0x15, 0x47, 0xd7, 0x3e,
  0xe2, 0x6f, 0xfa, 0x3b, 0xf2, 0xa5, 0x47, 0xbe, 0xe7, 0x1d, 0xec, 0x3e,
  0xb1, 0x05, 0x98, 0x3c, 0xca, 0x75, 0xe2, 0xbe, 0x2a, 0x0a, 0xf9, 0xbd,
  0x2b, 0x96, 0x45, 0xbd, 0x7a, 0x80, 0x06, 0xbe, 0xec, 0xe8, 0xa7, 0xbd,
  0x94, 0xb3, 0xa8, 0x3d, 0x25, 0xc9, 0x91, 0xbe, 0xe4, 0x5b, 0xc2, 0xbe,
  0x2b, 0x3b, 0x81, 0x3e, 0x8d, 0x0e, 0xf3, 0x3d, 0x94, 0x9e, 0xa5, 0xbd,
  0xc3, 0xed, 0x89, 0x3e, 0x81, 0x59, 0xa1, 0xbe, 0x80, 0x9d, 0x22, 0xbe,
  0x2a, 0x10, 0xe1, 0x3e, 0x24, 0x25, 0x9f, 0x3d, 0xcb, 0x1d, 0x6c, 0xbe,
  0x78, 0xf6, 0x8c, 0xbe, 0x6b, 0xdc, 0xba, 0x3d, 0x8c, 0x6b, 0x60, 0xbe,
  0xb5, 0x41, 0x52, 0xbe, 0xed, 0x57, 0x39, 0x3d, 0xdd, 0xaa, 0xa2, 0xbe,
  0xbf, 0xa9, 0xf3, 0xbe, 0x98, 0x39, 0xb8, 0x3e, 0xcd, 0x84, 0x03, 0xbc,
  0x43, 0xf3, 0xe7, 0xbd, 0x9b, 0x39, 0xfd, 0x3d, 0xa0, 0xad, 0x67, 0xbe,
  0x61, 0xdb, 0x4a, 0x3d, 0x70, 0x3b, 0xac, 0x3e, 0x89, 0xc4, 0x1e, 0xbc,
  0x41, 0xba, 0xc8, 0xbe, 0x2e, 0x20, 0xae, 0xbe, 0x27, 0xa4, 0xc5, 0x3d,
  0x15, 0x16, 0x32, 0xbe, 0xb5, 0xd4, 0x73, 0xbd, 0x20, 0xa4, 0x00, 0xbd,
  0xf1, 0x0a, 0xc7, 0xbe, 0xd7, 0x11, 0xbe, 0xbe, 0x8a, 0x9b, 0x02, 0x3e,
  0x0d, 0x10, 0xba, 0x3e, 0x4f, 0x3f, 0x43, 0xbe, 0x7a, 0x64, 0x67, 0x3e,
  0x1c, 0x6c, 0xd7, 0xbe, 0x13, 0xe9, 0xe0, 0xbd, 0x4f, 0x5b, 0x96, 0xbb,
  0x9d, 0xef, 0xd6, 0xbd, 0x76, 0xe3, 0xfa, 0x3d, 0xce, 0x0f, 0xb8, 0xbe,
  0x99, 0xcd, 0xd2, 0xbd, 0x5b, 0x6b, 0x96, 0xbe, 0x77, 0x82, 0xcd, 0xbe,
  0x94, 0x4a, 0x33, 0x3e, 0x72, 0x0a, 0x83, 0xbe, 0xac, 0x5d, 0x15, 0xbf,
  0x26, 0xf3, 0x69, 0x3e, 0x89, 0x92, 0xbc, 0x3e, 0x97, 0xc7, 0x89, 0xbe,
  0xbb, 0x20, 0xc6, 0xbd, 0x02, 0x46, 0x85, 0xbe, 0x4b, 0x59, 0x3e, 0xb9,
  0xf9, 0x8c, 0xa3, 0xbd, 0x8e, 0x93, 0x23, 0xbe, 0x1b, 0x08, 0xb9, 0x3d,
  0x3d, 0x9b, 0xbd, 0xbe, 0x5d, 0x98, 0x23, 0x3d, 0x26, 0x1c, 0x54, 0xbe,
  0x57, 0x2c, 0xe1, 0xbe, 0x0c, 0x49, 0x9c, 0xbe, 0x53, 0x79, 0x5a, 0xbd,
  0xf7, 0x0f, 0xca, 0xbe, 0xe9, 0xbd, 0x61, 0x3e, 0x12, 0x40, 0xcb, 0x3c,
  0x49, 0xd2, 0xef, 0xbd, 0xc4, 0x05, 0x44, 0xbe, 0xc5, 0xcd, 0xfb, 0x3b,
  0xc1, 0x4c, 0x39, 0x3d, 0x56, 0x4f, 0x59, 0xbe, 0xde, 0x05, 0x4b, 0xbc,
  0xd7, 0x9f, 0x95, 0xbd, 0x9f, 0x43, 0x38, 0xbe, 0x1e, 0x8d, 0x13, 0x3e,
  0xb5, 0x3c, 0x43, 0x3d, 0x53, 0xe3, 0x6b, 0xbd, 0x6c, 0x9f, 0x85, 0xbe,
  0x93, 0x82, 0xa2, 0xbd, 0x8e, 0x3b, 0xd2, 0x3c, 0xec, 0x75, 0x9f, 0x3b,
  0xb1, 0x75, 0xb1, 0xbd, 0x86, 0xb1, 0x21, 0xbd, 0x68, 0xe7, 0x11, 0xbd,
  0x49, 0x3f, 0xbd, 0xbd, 0xd5, 0x9f, 0x68, 0x3d, 0x57, 0x97, 0xae, 0xbd,
  0x2b, 0x19, 0xbc, 0x3d, 0xda, 0xed, 0xd5, 0x3d, 0x5e, 0x81, 0x07, 0x3d,
  0xa2, 0x46, 0x67, 0x3d, 0xbd, 0xcb, 0x97, 0x3d, 0xc3, 0xd6, 0x01, 0x3d,
  0xea, 0x11, 0xe9, 0x3d, 0xc3, 0x4b, 0x3b, 0xbd, 0x97, 0x72, 0x35, 0xbc,
  0xd4, 0x4d, 0x6b, 0xbd, 0xe1, 0x31, 0x0e, 0x3e, 0x2d, 0x58, 0xeb, 0xba,
  0xd0, 0x2d, 0xf5, 0x3d, 0x6a, 0x06, 0x5c, 0xbd, 0xc8, 0xb4, 0x1d, 0xbe,
  0x3b, 0xd0, 0x0f, 0xbe, 0xb7, 0x83, 0x8c, 0xbd, 0x13, 0xb5, 0x9e, 0x3d,
  0xcb, 0xc6, 0x1e, 0xbd, 0x01, 0xb6, 0xa0, 0xbd, 0xb9, 0x37, 0x98, 0xbc,
  0xee, 0x94, 0x96, 0xbc, 0x86, 0x7a, 0xb5, 0xbd, 0xe4, 0xfe, 0xc8, 0xbd,
  0x46, 0xa6, 0x36, 0xbe, 0x97, 0x81, 0x19, 0x3e, 0x56, 0x3d, 0xac, 0x3e,
  0x81, 0xb0, 0x2c, 0xbe, 0xde, 0xc0, 0xd7, 0xbd, 0x44, 0x07, 0x83, 0xbe,
  0x09, 0xe1, 0xad, 0x3e, 0x85, 0xfe, 0x33, 0xbe, 0xbb, 0x8d, 0x02, 0x3e,
  0x15, 0x1c, 0x9d, 0x3e, 0x63, 0xcb, 0xe7, 0xbd, 0x91, 0x15, 0x22, 0x3e,
  0xab, 0x2e, 0x71, 0xbd, 0xbb, 0x69, 0x12, 0xbe, 0x29, 0x2d, 0x8e, 0xbe,
  0xbf, 0x2b, 0xdb, 0x3d, 0xc0, 0xb2, 0x16, 0x3e, 0x19, 0x5e, 0xac, 0x3d,
  0x0c, 0x4f, 0x51, 0xbd, 0x0d, 0x88, 0x23, 0xbd, 0x02, 0x44, 0xcd, 0xbd,
  0x2d, 0x44, 0x35, 0xbe, 0xbf, 0x3d, 0x10, 0x3e, 0x78, 0xc0, 0x1f, 0xbe,
  0xaf, 0x3f, 0xe9, 0x3d, 0x34, 0xb1, 0x49, 0x3e, 0xb8, 0xb4, 0x0c, 0x3d,
  0xa2, 0x56, 0xa5, 0xbd, 0x15, 0xd1, 0xf4, 0x3b, 0x62, 0xb4, 0x37, 0x3c,
  0xfd, 0xdc, 0x3a, 0xbe, 0xe7, 0x10, 0x27, 0x3e, 0x7c, 0x1f, 0xc4, 0x3d,
  0x2a, 0xd5, 0x39, 0xbe, 0x6e, 0xcd, 0x24, 0xbd, 0x85, 0x52, 0x62, 0x3e,
  0x75, 0x00, 0xff, 0xbc, 0x2d, 0x57, 0x8c, 0xbe, 0x11, 0xbe, 0xb8, 0x3d,
  0x9a, 0x13, 0x01, 0xbf, 0xd6, 0x6c, 0x10, 0xbd, 0x24, 0x2f, 0x34, 0x3d,
  0x9b, 0x04, 0x8e, 0x3d, 0x63, 0x73, 0x56, 0x3d, 0x0d, 0x34, 0xec, 0x3d,
  0xac, 0xe5, 0x39, 0xbc, 0x39, 0xfe, 0x42, 0xbd, 0x82, 0x3d, 0x4f, 0x3e,
  0xd5, 0x49, 0x88, 0xbc, 0x2a, 0xf0, 0x29, 0xbe, 0x66, 0x72, 0x1a, 0xbe,
  0x78, 0x13, 0xb6, 0x3d, 0xd6, 0xef, 0xcb, 0xbe, 0x05, 0xa5, 0xbc, 0xbd,
  0xaa, 0xa3, 0xd0, 0xbd, 0x72, 0x34, 0x14, 0xbf, 0xa2, 0xe2, 0x58, 0x3e,
  0x6d, 0xa8, 0xfc, 0xbd, 0xd5, 0x24, 0x66, 0x3e, 0x32, 0xe1, 0x8e, 0x3e,
  0x50, 0x4f, 0x44, 0x3e, 0x39, 0x71, 0xd9, 0x3d, 0xe1, 0x92, 0xb8, 0xbe,
  0x1e, 0x4c, 0xaa, 0x3e, 0xf6, 0x80, 0x28, 0x3e, 0xdc, 0x5f, 0x36, 0xbe,
  0x01, 0x30, 0x4e, 0x3d, 0x8c, 0xf1, 0x08, 0x3e, 0x65, 0xb1, 0xb6, 0xbe,
  0xd6, 0x87, 0xf4, 0x3d, 0xbb, 0x7d, 0x52, 0x3e, 0x7b, 0xc6, 0x21, 0xbf,
  0xdd, 0x14, 0xc9, 0x3e, 0xe2, 0x44, 0x9c, 0xbd, 0x69, 0x2a, 0x51, 0x3e,
  0x4f, 0x55, 0x40, 0x3e, 0x08, 0x75, 0x02, 0x3e, 0x8f, 0x70, 0xc3, 0x3e,
  0x9c, 0x36, 0xae, 0xbe, 0x3d, 0x97, 0x20, 0x3e, 0x5a, 0x27, 0x63, 0x3e,
  0x40, 0xca, 0x4c, 0xbe, 0x59, 0xb1, 0x23, 0x3e, 0x67, 0xe6, 0xb0, 0x3d,
  0x74, 0x12, 0xed, 0xbe, 0x29, 0x9c, 0x98, 0xbd, 0xac, 0x1c, 0x81, 0x3e,
  0x6a, 0x6f, 0x3e, 0xbf, 0x3b, 0xe9, 0x94, 0x3e, 0x50, 0x3d, 0x0e, 0x3e,
  0xa0, 0xee, 0xcd, 0x3d, 0x7a, 0xa6, 0x0e, 0x3e, 0xe1, 0x65, 0x5e, 0x3c,
  0x0b, 0x46, 0x84, 0x3e, 0x92, 0x9c, 0x83, 0xbd, 0x1a, 0x79, 0x67, 0x3d,
  0x7b, 0x52, 0x6f, 0x3e, 0xdc, 0xc7, 0x91, 0xbe, 0x7b, 0x68, 0x6c, 0xbd,
  0x02, 0xf3, 0x5a, 0xbd, 0x30, 0x83, 0xcc, 0xbe, 0xed, 0x80, 0x76, 0x3d,
  0x53, 0x53, 0x1e, 0x3e, 0x74, 0x76, 0xcd, 0xbe, 0x77, 0xda, 0xb8, 0x3c,
  0xac, 0x67, 0x3b, 0x3e, 0xfa, 0xe3, 0xc6, 0x3c, 0x13, 0xdf, 0x20, 0x3e,
  0x4d, 0x66, 0x1c, 0x3e, 0x50, 0x12, 0x7b, 0x3e, 0x21, 0x69, 0x80, 0x3d,
  0x90, 0x84, 0x18, 0x3e, 0x86, 0x50, 0x36, 0x3f, 0xe2, 0x28, 0x3c, 0xbe,
  0x9e, 0x0e, 0x0d, 0x3d, 0x9c, 0x69, 0x23, 0x3e, 0x29, 0x9c, 0xbb, 0xbe,
  0xbe, 0x7e, 0x68, 0x3d, 0xa9, 0x56, 0xbb, 0x3e, 0x2c, 0xde, 0x0e, 0xbf,
  0x2b, 0xb0, 0x66, 0x3e, 0x6a, 0x33, 0xba, 0x3e, 0x29, 0xf2, 0xa1, 0x3d,
  0xf2, 0x08, 0x1a, 0xbe, 0x5d, 0xc2, 0x31, 0xbd, 0xa9, 0x41, 0x56, 0x3d,
  0x76, 0x6a, 0x4d, 0x3e, 0x31, 0x0a, 0x72, 0x3e, 0xdf, 0x9c, 0x33, 0x3f,
  0x18, 0x8d, 0xd5, 0xbd, 0x65, 0xfa, 0x9f, 0x3e, 0x12, 0x29, 0x0e, 0x3d,
  0xec, 0x7f, 0x7e, 0xbe, 0x9e, 0x22, 0xa2, 0x3e, 0x02, 0x98, 0xfb, 0x3c,
  0x3b, 0xce, 0xb2, 0xbe, 0x05, 0x24, 0x2b, 0xbc, 0xea, 0xc6, 0x14, 0x3f,
  0xf0, 0x2f, 0x4c, 0x3e, 0x99, 0x4b, 0x35, 0xbd, 0xa2, 0x5d, 0x2d, 0x3e,
  0x35, 0xb7, 0x5d, 0x3e, 0xff, 0x84, 0xe3, 0x3d, 0x35, 0x0c, 0x6c, 0x3e,
  0x75, 0x70, 0xe0, 0x3e, 0xc1, 0x6a, 0x90, 0x3d, 0x18, 0x71, 0x84, 0xbe,
  0x3e, 0x15, 0x31, 0x3e, 0x2b, 0xe4, 0x9c, 0xbd, 0xfa, 0x95, 0xe9, 0x3e,
  0xaa, 0xfd, 0x93, 0xbc, 0x76, 0xdd, 0xe6, 0xbd, 0x4d, 0x8e, 0x48, 0x3d,
  0x43, 0xf5, 0x6c, 0xbd, 0x9a, 0x60, 0xc4, 0x3e, 0x59, 0x76, 0x96, 0xbc,
  0xba, 0x71, 0x1b, 0x3e, 0xa3, 0xa0, 0x8c, 0x3e, 0xee, 0xc4, 0x1a, 0x3e,
  0x1d, 0x8f, 0xfe, 0x3e, 0x57, 0x15, 0x39, 0x3f, 0x81, 0xf6, 0x96, 0xbe,
  0x17, 0x66, 0xb9, 0xbe, 0x8f, 0x8c, 0x0c, 0x3e, 0x79, 0x92, 0xf0, 0xbd,
  0xde, 0xc2, 0x7b, 0x3e, 0xce, 0x6a, 0x96, 0xbd, 0x4a, 0x21, 0x1f, 0x3e,
  0x77, 0x92, 0x3d, 0xbe, 0xfc, 0x82, 0xbe, 0xbe, 0xb9, 0xa7, 0x06, 0x3f,
  0x37, 0x9a, 0x5e, 0xbe, 0xa9, 0x6c, 0x28, 0xbd, 0x72, 0x8d, 0x91, 0x3e,
  0xf4, 0x75, 0x5e, 0x3e, 0x40, 0xa8, 0xcc, 0x3e, 0x1c, 0x25, 0x3b, 0x3f,
  0x14, 0x09, 0x8b, 0xbe, 0x0f, 0x22, 0x7f, 0xbe, 0x08, 0xe2, 0xd0, 0xbd,
  0x49, 0xd9, 0x99, 0xbd, 0x42, 0xdf, 0xf3, 0x3d, 0x9b, 0x7f, 0x82, 0xbe,
  0x80, 0x15, 0xa3, 0xbd, 0x3e, 0x3f, 0xb6, 0xbe, 0xe4, 0xfa, 0x02, 0xbe,
  0x8d, 0x27, 0x42, 0x3e, 0xba, 0xfb, 0x90, 0xbe, 0xb2, 0xe0, 0x8f, 0xbd,
  0x08, 0x00, 0x73, 0x3e, 0x72, 0x71, 0x84, 0x3e, 0x15, 0xd0, 0x93, 0xbd,
  0xa7, 0xd7, 0xb2, 0x3d, 0x24, 0xba, 0x34, 0xbd, 0x2f, 0x9f, 0xa3, 0xbd,
  0xb4, 0xe1, 0xcc, 0x3c, 0xfd, 0x4f, 0xc5, 0x3d, 0x87, 0x14, 0x73, 0xbb,
  0x73, 0x74, 0x5d, 0xbc, 0x4e, 0xaa, 0xd7, 0x3d, 0x4a, 0x85, 0xb3, 0xbd,
  0x17, 0xda, 0x97, 0x3d, 0x84, 0xc8, 0xcc, 0xbd, 0xf8, 0x19, 0xac, 0xbc,
  0xce, 0x78, 0x40, 0x3b, 0x54, 0x75, 0xa6, 0xbd, 0xd9, 0xff, 0x00, 0xbe,
  0x35, 0x67, 0x9f, 0xbb, 0x38, 0xdf, 0xb4, 0xbd, 0x41, 0xff, 0xa7, 0x3d,
  0x31, 0xb3, 0x76, 0xbd, 0x5b, 0x79, 0xe3, 0xbd, 0xcd, 0xce, 0x27, 0x3d,
  0xab, 0x3a, 0x26, 0xbd, 0x7a, 0xc4, 0xad, 0xbc, 0xf4, 0x5d, 0xa4, 0x3c,
  0x14, 0xde, 0xd0, 0xbc, 0x13, 0xb3, 0x9f, 0x3d, 0xec, 0xb9, 0x44, 0x3d,
  0xf2, 0xc8, 0x90, 0xbd, 0x10, 0x77, 0x16, 0x3c, 0x65, 0x77, 0xa2, 0xbd,
  0xae, 0xd2, 0x56, 0x3e, 0xb8, 0xaa, 0xbd, 0xbd, 0xbb, 0x92, 0x25, 0xbf,
  0xef, 0x83, 0x9b, 0xbe, 0xc2, 0x16, 0xf3, 0xbe, 0x2c, 0x27, 0x95, 0xbd,
  0x96, 0x3a, 0x2f, 0x3e, 0x70, 0xa1, 0xe3, 0x3d, 0x2a, 0xc8, 0x43, 0xbe,
  0x5e, 0x51, 0x9d, 0x3e, 0x4d, 0xe1, 0xe5, 0x3c, 0xe2, 0xd7, 0x48, 0xbb,
  0x69, 0xb2, 0x59, 0x3d, 0x18, 0x5c, 0x3d, 0xbe, 0x17, 0x8b, 0x01, 0x3e,
  0xab, 0xb0, 0x80, 0xbd, 0x5c, 0xd7, 0x13, 0x3e, 0x79, 0xf1, 0x0d, 0xbe,
  0x0c, 0x93, 0xac, 0xbc, 0xec, 0x0f, 0x8d, 0x3d, 0x24, 0x5c, 0xef, 0x3b,
  0x18, 0xaa, 0x0f, 0xbc, 0xab, 0x98, 0x2e, 0x3e, 0x6e, 0xe1, 0x8d, 0x3e,
  0xc5, 0x94, 0xb9, 0xbd, 0xdb, 0x27, 0x57, 0x3e, 0x82, 0x6a, 0x99, 0xbe,
  0x3e, 0xea, 0x64, 0x3d, 0x89, 0xbe, 0x21, 0x3e, 0xe0, 0xf1, 0xf9, 0xbd,
  0x7a, 0x4d, 0x11, 0xbe, 0xc7, 0xba, 0xe2, 0x3d, 0x52, 0x02, 0xad, 0xbc,
  0x46, 0xb2, 0x35, 0x3d, 0xe3, 0x8e, 0x8c, 0x3d, 0x8b, 0xd4, 0x02, 0x3e,
  0x71, 0x6e, 0xb1, 0x3e, 0xa3, 0x49, 0xf0, 0xbd, 0xb9, 0x5f, 0x3e, 0x3e,
  0xb0, 0x56, 0xe6, 0x3e, 0x97, 0xc3, 0xba, 0x3e, 0xfc, 0x66, 0x0c, 0xbd,
  0x7f, 0xbf, 0xcb, 0xbc, 0x08, 0xd5, 0x48, 0x3e, 0xea, 0x5b, 0xb2, 0xbd,
  0xdb, 0x83, 0x64, 0xbe, 0x57, 0x38, 0xa7, 0x3e, 0x9b, 0x01, 0x9d, 0x3c,
  0xd7, 0xf0, 0x50, 0xbe, 0x03, 0x17, 0x38, 0xbc, 0x67, 0xbf, 0x3d, 0xbd,
  0x90, 0x4b, 0xb0, 0x3e, 0xd7, 0xce, 0xa5, 0x3e, 0x77, 0xa0, 0xc8, 0xbd,
  0xaf, 0x55, 0x3d, 0xbe, 0x2c, 0x44, 0x74, 0x3e, 0xa4, 0xd0, 0xd8, 0x3d,
  0xb8, 0x78, 0x93, 0xbe, 0x63, 0x57, 0x42, 0xbc, 0xad, 0xcc, 0x53, 0x3d,
  0xa6, 0x91, 0x1f, 0x3e, 0x7e, 0x3c, 0xf6, 0xbc, 0xc8, 0x34, 0x9a, 0x3d,
  0x8c, 0x27, 0x79, 0x3e, 0x18, 0x7b, 0xd3, 0xbd, 0x8d, 0xed, 0x10, 0xbe,
  0xb4, 0xde, 0x72, 0xbd, 0xd5, 0xa8, 0xa6, 0x3e, 0x3b, 0x61, 0xb2, 0x3e,
  0x94, 0xc5, 0x24, 0xbe, 0x2f, 0x20, 0x1e, 0xbe, 0x14, 0x89, 0x75, 0x3e,
  0x31, 0x62, 0x10, 0xbd, 0x55, 0x54, 0xa0, 0xbe, 0xdd, 0x9c, 0xcb, 0xbd,
  0xf6, 0x1b, 0xb8, 0x3e, 0xd6, 0x18, 0xf2, 0x3d, 0x37, 0xac, 0x41, 0xbe,
  0x74, 0x91, 0x25, 0x3e, 0x2a, 0x7e, 0xa0, 0xbd, 0x27, 0x67, 0x6a, 0xbe,
  0xff, 0xfc, 0x22, 0xbe, 0x0e, 0x7c, 0x4e, 0xbc, 0x46, 0x30, 0xe7, 0x3d,
  0xa7, 0x82, 0xcf, 0x3e, 0x1e, 0x00, 0x60, 0xbe, 0x46, 0xd7, 0xc8, 0xbd,
  0xf7, 0x70, 0xf1, 0x3e, 0x0c, 0x00, 0x07, 0x3e, 0xa2, 0xb3, 0x05, 0xbf,
  0xea, 0xcd, 0x12, 0xbd, 0x75, 0x2e, 0x80, 0x3e, 0x5c, 0x57, 0x0b, 0xbe,
  0xc0, 0x04, 0x42, 0xbe, 0x7e, 0x33, 0x0a, 0x3e, 0x38, 0xb8, 0x5a, 0x3e,
  0xca, 0xba, 0x89, 0x3d, 0x3a, 0x2e, 0x14, 0x3d, 0x20, 0xbe, 0xf5, 0x3d,
  0x3d, 0x8c, 0xa6, 0xbd, 0xa0, 0x46, 0xfd, 0x3e, 0xb4, 0x76, 0x51, 0xbe,
  0x0d, 0xf1, 0xfa, 0x3d, 0x61, 0xab, 0x8d, 0x3e, 0x68, 0xf9, 0x69, 0x3e,
  0x1e, 0x66, 0x90, 0x3d, 0x79, 0x1e, 0x45, 0x3d, 0x36, 0x15, 0xd1, 0x3e,
  0x5b, 0x82, 0xb7, 0x3c, 0xec, 0x02, 0xc2, 0xbd, 0x29, 0xc5, 0x0b, 0x3e,
  0x0a, 0x1d, 0x10, 0x3e, 0xe6, 0x9e, 0x5d, 0x3c, 0x31, 0xc3, 0xb7, 0xbd,
  0x4d, 0x90, 0x12, 0x3e, 0xe9, 0x1a, 0x84, 0x3e, 0xbe, 0x29, 0x01, 0x3f,
  0xd7, 0x1d, 0x28, 0xbd, 0xec, 0x80, 0x71, 0xbd, 0xd1, 0x76, 0x66, 0x3e,
  0x80, 0x68, 0xfd, 0x3d, 0xd5, 0x22, 0x63, 0x3d, 0x01, 0x4b, 0x97, 0x3d,
  0x03, 0xa0, 0xb2, 0x3e, 0xe8, 0xed, 0xdc, 0x3d, 0x51, 0x98, 0x57, 0xbd,
  0xb9, 0x90, 0x91, 0xbc, 0x02, 0x39, 0x24, 0x3e, 0xb8, 0x4d, 0xa0, 0xbe,
  0x9b, 0xb2, 0x6d, 0x3d, 0xb2, 0x3d, 0x81, 0x3e, 0x2a, 0x57, 0xb0, 0xbd,
  0xbe, 0x4b, 0x60, 0x3e, 0x68, 0x7a, 0x46, 0x3d, 0x1b, 0xbb, 0xf8, 0xbd,
  0x9e, 0xbe, 0x45, 0x3e, 0x8d, 0x08, 0x96, 0x3e, 0xf4, 0x0d, 0x85, 0xbd,
  0x9f, 0xd3, 0xfc, 0x3d, 0x8b, 0xe1, 0xc7, 0x3e, 0x11, 0xb3, 0xab, 0x3d,
  0x9d, 0x53, 0xc6, 0x3c, 0x92, 0xe5, 0x52, 0x3e, 0x24, 0x48, 0x95, 0x3e,
  0x93, 0xc9, 0x63, 0x3c, 0x5f, 0x30, 0x48, 0x3e, 0x10, 0xd3, 0xa7, 0x3d,
  0xf2, 0x92, 0xe8, 0x3d, 0xfa, 0xe3, 0xe9, 0xbc, 0x59, 0xb6, 0x66, 0x3d,
  0x2f, 0x1f, 0xb6, 0xbe, 0x93, 0x0b, 0x89, 0x3e, 0xbc, 0xf6, 0xb8, 0x3e,
  0x5b, 0x13, 0xfe, 0x3b, 0x1e, 0xbb, 0x25, 0x3e, 0xbc, 0xbb, 0x8b, 0x3d,
  0xd6, 0xd4, 0x3f, 0x3e, 0xa4, 0x51, 0x58, 0xbc, 0xac, 0xe3, 0xf6, 0xbc,
  0x01, 0x9f, 0x96, 0x3e, 0xd7, 0x42, 0xe5, 0xbd, 0xda, 0xdb, 0xf3, 0x3d,
  0x85, 0x69, 0x00, 0x3f, 0x13, 0xaa, 0x5a, 0xbe, 0x34, 0x8f, 0x0f, 0xbf,
  0x19, 0xe7, 0xe3, 0xbc, 0xbe, 0x37, 0xce, 0xbe, 0x1a, 0xf6, 0x9e, 0x3d,
  0xd2, 0x41, 0x8c, 0x3e, 0x60, 0x81, 0x5d, 0xbe, 0xd1, 0xc4, 0xdb, 0x3d,
  0x7c, 0x08, 0xba, 0xbe, 0x09, 0x0e, 0x7a, 0x3b, 0x37, 0x75, 0xb7, 0xbb,
  0xe6, 0xcb, 0x1c, 0x3d, 0x3f, 0x94, 0xac, 0x3e, 0x53, 0x0f, 0x9b, 0xbe,
  0x10, 0x43, 0xf7, 0x3d, 0x66, 0x0d, 0x1c, 0x3f, 0x31, 0xcd, 0xd1, 0xbe,
  0x7e, 0xf0, 0x97, 0xbd, 0x1c, 0x93, 0x94, 0xbd, 0x77, 0x62, 0xe2, 0xbe,
  0x9a, 0x59, 0xef, 0xbe, 0xf2, 0x8e, 0x1b, 0x3e, 0x1a, 0x3b, 0x41, 0xbe,
  0x81, 0x58, 0xa0, 0xbe, 0x84, 0xb2, 0x5a, 0x3c, 0x7d, 0x30, 0xae, 0xbd,
  0x7f, 0x86, 0x68, 0xbe, 0x06, 0xb1, 0xd2, 0xbe, 0xea, 0x2d, 0xaf, 0x3d,
  0xc6, 0xd0, 0xc9, 0xbd, 0x0d, 0x95, 0x6d, 0x3c, 0xe6, 0x10, 0x55, 0xbd,
  0x56, 0x67, 0x39, 0xbe, 0xd9, 0xd0, 0x8a, 0x3a, 0xe0, 0x8b, 0x16, 0xbd,
  0xfe, 0x10, 0x85, 0xbc, 0x54, 0xf1, 0x90, 0x3d, 0x0b, 0x6c, 0xba, 0xbd,
  0xc6, 0xc7, 0xba, 0xbd, 0x3e, 0xb8, 0x26, 0xbd, 0x75, 0x00, 0x20, 0x3d,
  0xec, 0x3e, 0xd8, 0xbc, 0x8b, 0x2a, 0x2e, 0xbe, 0x82, 0xaf, 0x09, 0xbe,
  0xe9, 0xfb, 0x49, 0x3c, 0x0e, 0x62, 0xc1, 0x3b, 0xca, 0x44, 0xc4, 0x3d,
  0xc1, 0x7d, 0xa1, 0x3d, 0x03, 0x2a, 0x2a, 0xbd, 0x7f, 0x57, 0x52, 0x3e,
  0x75, 0xb0, 0x21, 0xbd, 0x61, 0x5d, 0x06, 0xbe, 0xd5, 0x6d, 0x81, 0xbd,
  0x8f, 0x85, 0x7f, 0x3d, 0x1b, 0xff, 0xe6, 0xbd, 0x93, 0x8d, 0x90, 0x3d,
  0x0a, 0xc4, 0x29, 0x3c, 0xcd, 0xe5, 0xff, 0x3d, 0xd3, 0x47, 0x77, 0x3d,
  0x4b, 0x2f, 0x81, 0x3d, 0x5a, 0x52, 0x8e, 0x3d, 0x10, 0xfb, 0xdb, 0x3c,
  0x50, 0x16, 0x46, 0x3e, 0x85, 0x00, 0x3f, 0x3e, 0x0c, 0x0b, 0x8d, 0x3e,
  0x60, 0xeb, 0x21, 0x3f, 0x7e, 0x13, 0x00, 0xbe, 0x28, 0x0c, 0xf2, 0x3c,
  0x8c, 0x3f, 0x1f, 0xbe, 0x23, 0x95, 0x86, 0x3e, 0x12, 0x1f, 0xee, 0xbe,
  0xde, 0x67, 0xad, 0x3e, 0x1f, 0x11, 0xc2, 0xbc, 0x45, 0xbe, 0x75, 0xbe,
  0xff, 0x25, 0xbd, 0x3e, 0x51, 0x49, 0xa2, 0xba, 0xbb, 0x0f, 0x20, 0x3e,
  0x36, 0xa1, 0xf0, 0xbe, 0xb8, 0x11, 0x11, 0x3e, 0x19, 0x01, 0x80, 0xbd,
  0x6a, 0x5a, 0x7a, 0x3e, 0x51, 0x22, 0xca, 0xbe, 0x3b, 0xdc, 0x14, 0x3e,
  0x3d, 0xa5, 0x01, 0xbe, 0x29, 0x5d, 0x8b, 0xbe, 0xd4, 0x62, 0xaf, 0xbe,
  0x15, 0xba, 0x6e, 0xbe, 0xd7, 0xa7, 0x60, 0x3c, 0xb8, 0x5b, 0x3e, 0xbe,
  0x92, 0x19, 0x33, 0xbe, 0x1d, 0x06, 0x98, 0x3e, 0xcc, 0xbe, 0x7d, 0x3d,
  0x21, 0x70, 0x1b, 0xbe, 0x0f, 0x3b, 0xba, 0xbe, 0x98, 0xd5, 0x91, 0x3d,
  0x9f, 0xb2, 0x53, 0xbe, 0xec, 0x7f, 0xa3, 0xbe, 0xcd, 0x42, 0xa8, 0xbe,
  0x3c, 0x50, 0x02, 0x3d, 0x0f, 0x50, 0x92, 0xbe, 0x0b, 0x00, 0xbe, 0xbe,
  0xb7, 0x72, 0xa4, 0xbe, 0xc8, 0x50, 0x52, 0xbd, 0x3d, 0xaf, 0xf3, 0x3d,
  0x00, 0x5e, 0x49, 0xbe, 0xdd, 0x71, 0x20, 0x3e, 0x14, 0x84, 0x63, 0x3e,
  0xee, 0x11, 0x1c, 0x3d, 0xf3, 0x96, 0xd8, 0xbb, 0xb5, 0x4f, 0x8e, 0x3d,
  0x1e, 0xf6, 0x40, 0xbd, 0x85, 0x74, 0x8c, 0xbe, 0x3f, 0x40, 0xb5, 0xbe,
  0x18, 0xc1, 0x28, 0xbe, 0x6e, 0xb6, 0xa0, 0x3e, 0x06, 0x5b, 0x45, 0xbe,
  0x36, 0xcc, 0xec, 0xbe, 0x49, 0x43, 0x74, 0xbd, 0xf9, 0xb8, 0x98, 0xbe,
  0xa3, 0xe3, 0x98, 0x3d, 0x21, 0xf6, 0xf4, 0xbd, 0xae, 0x96, 0x33, 0x3d,
  0xf4, 0xfb, 0x38, 0x3e, 0x35, 0x18, 0xdf, 0xbd, 0x8b, 0x51, 0x6c, 0x3d,
  0x48, 0x1d, 0x81, 0xbe, 0x45, 0xfe, 0x69, 0xbd, 0xb9, 0xfa, 0xa7, 0x3d,
  0x3b, 0x05, 0x8d, 0xbe, 0x22, 0xea, 0xf9, 0xbe, 0x09, 0x3f, 0x01, 0x3e,
  0xa7, 0x92, 0x6a, 0xbe, 0xa7, 0x84, 0xea, 0xbe, 0xc9, 0x7f, 0x30, 0xbd,
  0xf2, 0x1f, 0x70, 0xbe, 0x7e, 0x96, 0x59, 0x3d, 0xab, 0x4b, 0xa1, 0xbe,
  0x27, 0x40, 0x61, 0xbc, 0xfc, 0x90, 0x4d, 0x3e, 0x5d, 0x67, 0x0c, 0xbe,
  0xe2, 0x6c, 0x49, 0x3d, 0x6a, 0xc5, 0x68, 0xbe, 0x0f, 0x99, 0xb3, 0xbd,
  0x77, 0xfe, 0x80, 0x3d, 0x05, 0x73, 0xdd, 0xbe, 0x79, 0xc6, 0xd7, 0xbe,
  0xee, 0xc8, 0x21, 0x3e, 0x2e, 0xdc, 0x8d, 0xbe, 0xe7, 0x06, 0xe3, 0xbe,
  0x14, 0x0b, 0x2c, 0xbd, 0x9c, 0x73, 0xd5, 0xbd, 0x92, 0x32, 0xab, 0x3d,
  0x59, 0xb3, 0x0f, 0xbe, 0xde, 0x47, 0x80, 0x3c, 0x2c, 0x04, 0x3f, 0x3e,
  0x78, 0x1d, 0x5f, 0x3d, 0x02, 0x69, 0x47, 0xbd, 0xb0, 0x01, 0x87, 0xbe,
  0xe9, 0x10, 0xfe, 0x3d, 0xd0, 0x3c, 0x1f, 0x3e, 0xae, 0xaa, 0x03, 0xbe,
  0xa6, 0x33, 0xcc, 0xbe, 0xd4, 0xd7, 0x51, 0x3e, 0x15, 0xdb, 0x01, 0xbf,
  0xcd, 0xbe, 0x8a, 0xbe, 0xab, 0x0f, 0x40, 0xbd, 0xfd, 0x9b, 0x06, 0xbc,
  0xbc, 0xbe, 0x27, 0x3e, 0xf4, 0x43, 0x30, 0xbe, 0xe7, 0x8a, 0xa3, 0xbd,
  0x46, 0x81, 0xd8, 0x3d, 0x1f, 0x5a, 0x97, 0xbd, 0xa4, 0x9f, 0x31, 0xbc,
  0xd8, 0xb4, 0x42, 0xba, 0x4c, 0x75, 0x58, 0x3e, 0x52, 0xe9, 0xd4, 0x3e,
  0x04, 0xc6, 0xd5, 0xbe, 0xff, 0x4f, 0x14, 0xbf, 0x81, 0x92, 0x92, 0x3e,
  0x5b, 0x9e, 0x5d, 0xbe, 0xcc, 0x26, 0x1f, 0xbe, 0xc7, 0x73, 0xa5, 0xbe,
  0xd7, 0xf0, 0x86, 0x3d, 0x97, 0x5f, 0x2e, 0x3e, 0xaa, 0x57, 0xd2, 0xbe,
  0xd3, 0x16, 0x1e, 0xbd, 0xdf, 0xb9, 0xa2, 0x3e, 0x82, 0x36, 0x7c, 0xbb,
  0x52, 0x50, 0x63, 0xbd, 0xef, 0x73, 0xdb, 0x3e, 0x0e, 0xa5, 0x26, 0x3e,
  0x44, 0xed, 0xf3, 0x3e, 0x7e, 0xd2, 0x93, 0xbe, 0xe9, 0xbf, 0x77, 0xbe,
  0x69, 0x1e, 0x50, 0x3e, 0x01, 0x2e, 0x78, 0xbe, 0x84, 0xdb, 0x4e, 0xbe,
  0x16, 0x94, 0x18, 0xbe, 0xf5, 0x1f, 0x79, 0xbe, 0x1c, 0x09, 0x17, 0xbb,
  0x0b, 0x51, 0xaa, 0xbe, 0x50, 0xe6, 0x14, 0xbc, 0x82, 0xe8, 0xbc, 0x3d,
  0x29, 0xf9, 0x5e, 0x3b, 0xa3, 0x01, 0x9e, 0x3d, 0x8c, 0xdf, 0xe4, 0x3e,
  0x87, 0xd7, 0xea, 0x3d, 0xd9, 0xbe, 0xcc, 0x3e, 0x9c, 0x54, 0x62, 0xbe,
  0xf7, 0xf1, 0x5d, 0xbe, 0xd0, 0x25, 0x97, 0x3e, 0xc7, 0xdd, 0x9a, 0x3d,
  0xa0, 0xe0, 0xa1, 0x3e, 0xd9, 0x68, 0x15, 0xbf, 0xd9, 0x03, 0x48, 0xbd,
  0x5c, 0xd3, 0xf6, 0xbc, 0x8e, 0x22, 0xd5, 0xbd, 0x78, 0x8c, 0x4e, 0x3e,
  0x96, 0x6b, 0x85, 0x3d, 0x67, 0xdb, 0x41, 0x3e, 0x28, 0x11, 0x20, 0x3d,
  0x26, 0xba, 0x6b, 0x3c, 0x3f, 0xa9, 0x94, 0x3c, 0xb8, 0xbd, 0x36, 0x3e,
  0x03, 0x81, 0x95, 0xbd, 0x52, 0xb8, 0x30, 0x3e, 0x4a, 0xbc, 0x84, 0x3e,
  0x10, 0x69, 0xa5, 0x3e, 0x93, 0x9f, 0x0e, 0x3d, 0x29, 0xb2, 0xb2, 0xbe,
  0x58, 0x0e, 0x84, 0x3e, 0xf2, 0x5c, 0xb4, 0xbd, 0xca, 0x90, 0x66, 0x3d,
  0x6b, 0xa9, 0xcf, 0x3e, 0x9a, 0xb5, 0x8c, 0xbd, 0x2b, 0x8f, 0xb4, 0x3d,
  0xba, 0x05, 0x91, 0xbd, 0x02, 0xe7, 0xf5, 0x3e, 0x87, 0x5e, 0x41, 0x3d,
  0x8f, 0x84, 0xcf, 0xbd, 0x14, 0x58, 0x1f, 0x3d, 0x92, 0x69, 0xd5, 0xbe,
  0x6d, 0xee, 0xc1, 0x3e, 0x5b, 0x93, 0x27, 0x3e, 0x36, 0xfd, 0xae, 0x3e,
  0xa5, 0xc4, 0x25, 0xbe, 0x8b, 0x27, 0xcb, 0x3e, 0x51, 0x27, 0xb9, 0x3d,
  0xa3, 0x47, 0xb1, 0xbe, 0xdc, 0x26, 0xc7, 0x3e, 0xca, 0x62, 0xc6, 0x3d,
  0x84, 0x03, 0x68, 0x3d, 0x73, 0x30, 0xc4, 0xbc, 0x1d, 0x5a, 0xcb, 0x3e,
  0x5b, 0x8a, 0x1d, 0x3c, 0x66, 0xb3, 0x0c, 0xbd, 0xf4, 0x9b, 0xbc, 0xbd,
  0x9c, 0x5e, 0x92, 0xbd, 0xce, 0x65, 0x2a, 0xbc, 0xe1, 0x09, 0x4a, 0x3e,
  0xc5, 0xdd, 0x48, 0x3c, 0xbd, 0xb4, 0x03, 0x3e, 0xf3, 0x30, 0x35, 0x3c,
  0xa0, 0x76, 0x51, 0x3d, 0xac, 0x7e, 0xfd, 0x3d, 0x69, 0x3c, 0xb0, 0x3c,
  0x80, 0x46, 0x43, 0x3c, 0x23, 0x17, 0xda, 0xbd, 0xdc, 0x6a, 0x7c, 0x3b,
  0x78, 0x3d, 0x0e, 0x3e, 0x0e, 0x6e, 0x2e, 0xbd, 0xf7, 0xe7, 0xf8, 0xbd,
  0xd4, 0x25, 0xde, 0x3c, 0x18, 0xba, 0x09, 0xbe, 0xf0, 0xc1, 0x15, 0xbd,
  0x66, 0xe5, 0x0a, 0xbd, 0x5e, 0x60, 0xbe, 0xbc, 0xb9, 0x36, 0xf5, 0xbd,
  0x81, 0x8b, 0x29, 0xbe, 0xe9, 0xb2, 0xad, 0xbd, 0x52, 0x8d, 0xfd, 0x3c,
  0x64, 0xf2, 0x4f, 0xbc, 0xc2, 0x72, 0xc7, 0xbd, 0x6f, 0x02, 0x52, 0x3d,
  0xd7, 0x84, 0x58, 0xbd, 0x73, 0xcd, 0x08, 0x3e, 0x98, 0xb1, 0x61, 0xbe,
  0x0e, 0x90, 0x05, 0xbf, 0xc3, 0x14, 0x98, 0xbd, 0x27, 0xd3, 0x15, 0xbd,
  0xbc, 0x6f, 0xd9, 0xbd, 0xb4, 0xfd, 0xe1, 0xbd, 0x27, 0x87, 0x0a, 0xbe,
  0x5f, 0x70, 0x38, 0x3e, 0x60, 0x04, 0x49, 0xbe, 0xf9, 0xe0, 0xc0, 0x3d,
  0xd3, 0xc5, 0x6b, 0x3e, 0xb7, 0x6b, 0x84, 0xbe, 0x8f, 0xae, 0xfa, 0xbd,
  0x94, 0x4f, 0x03, 0xbe, 0x9a, 0xf2, 0x0d, 0x3e, 0x3a, 0x3f, 0x87, 0xbd,
  0x6e, 0xf1, 0xbf, 0xbd, 0x6a, 0x5c, 0x3b, 0x3e, 0xd9, 0x04, 0x7d, 0x3c,
  0x24, 0x39, 0x9a, 0xbc, 0xe7, 0x0b, 0xad, 0xbd, 0xe0, 0xe1, 0xd5, 0xbd,
  0xea, 0x10, 0x79, 0xbe, 0xa1, 0xcf, 0x15, 0x3e, 0xa2, 0x03, 0xba, 0xbd,
  0xae, 0x83, 0x91, 0x3c, 0xb2, 0x91, 0xb2, 0xb9, 0xa3, 0xb7, 0xfe, 0xbc,
  0x03, 0x2e, 0x34, 0x3d, 0xef, 0x27, 0xb6, 0x3d, 0xb9, 0x4e, 0x87, 0x3d,
  0xa6, 0x1e, 0x11, 0xbe, 0x86, 0xa1, 0x88, 0x3d, 0xaf, 0x1d, 0x1a, 0xbc,
  0x8c, 0x6f, 0xa9, 0x3c, 0xdb, 0x3a, 0x5d, 0xbd, 0x50, 0xf0, 0xfe, 0x3d,
  0x03, 0x08, 0x09, 0xbe, 0x35, 0xd8, 0x0d, 0x3c, 0x81, 0x59, 0x83, 0x3d,
  0x18, 0x47, 0x9d, 0xbe, 0xd6, 0x47, 0xf6, 0x3d, 0x6d, 0xe9, 0xe7, 0x3d,
  0xfd, 0xc6, 0x68, 0x3e, 0x84, 0x39, 0x1a, 0xbd, 0x09, 0xf8, 0x3e, 0x3d,
  0x31, 0xc4, 0xd4, 0x3c, 0x55, 0xee, 0x1d, 0xbe, 0xfa, 0x8d, 0xe5, 0x3d,
  0xec, 0x46, 0x9e, 0x3d, 0xfe, 0xa1, 0x1d, 0xbe, 0xb8, 0xf4, 0xb4, 0x3c,
  0x67, 0xa0, 0xae, 0x3d, 0x28, 0xf4, 0xdc, 0xbe, 0x25, 0xa1, 0x88, 0x3c,
  0x5e, 0x78, 0x33, 0xbd, 0x45, 0x07, 0x2c, 0xbf, 0x0c, 0x2a, 0x0b, 0x3e,
  0x22, 0x3d, 0x95, 0xbd, 0xb5, 0xf1, 0xac, 0x3d, 0x3f, 0x5d, 0x0c, 0x3e,
  0x18, 0x55, 0x5e, 0x3e, 0xdd, 0x80, 0x2e, 0x3e, 0x24, 0x3f, 0x86, 0xbe,
  0xff, 0x8e, 0x5f, 0x3d, 0x44, 0x52, 0xe3, 0x3d, 0x9c, 0x37, 0x22, 0xbd,
  0x0e, 0x1c, 0x44, 0x3c, 0x07, 0x62, 0x47, 0x3e, 0xed, 0x39, 0x89, 0xbe,
  0xa0, 0xd9, 0x2d, 0x3d, 0x42, 0x47, 0xdd, 0xbd, 0xb8, 0xe1, 0x44, 0xbf,
  0x0c, 0x77, 0x73, 0x3e, 0x15, 0x38, 0x9e, 0xbd, 0x55, 0x2d, 0xe7, 0x3d,
  0x5e, 0x83, 0x82, 0x3c, 0x4e, 0xf0, 0xec, 0x3d, 0xbb, 0x0f, 0x2c, 0x3e,
  0xd7, 0x07, 0x25, 0xbe, 0x4d, 0x3e, 0x0d, 0x3e, 0x9a, 0x73, 0xac, 0x3e,
  0x6a, 0xbe, 0x7c, 0x3c, 0x49, 0xbf, 0x8e, 0x3d, 0x14, 0x90, 0x2c, 0x3e,
  0x3d, 0xf3, 0x80, 0xbe, 0x60, 0x44, 0xe5, 0x3d, 0x15, 0xaf, 0x5d, 0x3d,
  0xcc, 0xc5, 0xf6, 0xbe, 0xef, 0x65, 0x06, 0x3e, 0x47, 0x6f, 0x96, 0x3e,
  0x97, 0x6b, 0x2a, 0x3d, 0x51, 0xa9, 0x37, 0xbd, 0x11, 0xba, 0x10, 0x3e,
  0x57, 0xbe, 0x78, 0xbc, 0xac, 0x65, 0xb8, 0xbc, 0xd3, 0xa6, 0x01, 0x3e,
  0x58, 0x7d, 0x37, 0x3e, 0xa5, 0x30, 0x40, 0xbd, 0x9b, 0x64, 0xf1, 0xba,
  0xcb, 0xe3, 0x7b, 0xbd, 0x83, 0xc7, 0x75, 0xbe, 0xd6, 0x44, 0x0a, 0x3e,
  0x16, 0x33, 0xaa, 0xbd, 0xdd, 0x44, 0x97, 0xbe, 0xd4, 0x70, 0x81, 0xba,
  0xfd, 0xf8, 0xed, 0x3d, 0x01, 0xe0, 0x70, 0xbc, 0x50, 0x69, 0xb1, 0x3d,
  0x88, 0xae, 0x9f, 0x3d, 0x68, 0xa9, 0x77, 0x3e, 0x91, 0x1c, 0xef, 0xbd,
  0xc5, 0xbf, 0x0e, 0x3e, 0x3e, 0x11, 0xbb, 0x3e, 0x47, 0xa0, 0xb2, 0xbd,
  0x07, 0xea, 0xdf, 0x3c, 0x95, 0x76, 0x54, 0xbd, 0x84, 0x5a, 0xa0, 0xbd,
  0xe2, 0x9b, 0x7a, 0x3d, 0xcc, 0x15, 0x43, 0x3d, 0x80, 0xdb, 0xb0, 0xbe,
  0x68, 0xbc, 0xd1, 0xbb, 0xde, 0x45, 0xc7, 0x3e, 0xe5, 0x19, 0x4d, 0x3d,
  0x43, 0x47, 0x1b, 0xbe, 0xee, 0xe9, 0xb4, 0x3d, 0x7f, 0xda, 0x42, 0x3e,
  0x49, 0x30, 0x55, 0xbe, 0x1a, 0x12, 0x30, 0x3e, 0xe3, 0x6f, 0xcf, 0x3e,
  0x99, 0xc2, 0x84, 0xbd, 0x6c, 0xe9, 0x3d, 0x3e, 0x4e, 0xf4, 0xc4, 0x3c,
  0x33, 0xb1, 0xa9, 0xbe, 0xa0, 0xc7, 0xad, 0x3e, 0x2c, 0xe2, 0x80, 0x3e,
  0xd0, 0x56, 0xda, 0xbe, 0x15, 0x16, 0x15, 0x3e, 0x7d, 0x66, 0x08, 0x3f,
  0x01, 0x64, 0x62, 0x3e, 0x93, 0xd7, 0x79, 0xbd, 0x89, 0x2b, 0x15, 0x3e,
  0xcf, 0xb9, 0x3a, 0x3e, 0xad, 0xfb, 0x07, 0xbd, 0x73, 0x83, 0x44, 0x3e,
  0xd0, 0x1f, 0xa3, 0x3e, 0x2c, 0x1a, 0x80, 0xbd, 0xdb, 0xac, 0xab, 0xbe,
  0xd5, 0xe8, 0xbb, 0xbd, 0x4c, 0x04, 0x1e, 0xbd, 0x53, 0x4b, 0xe6, 0x3e,
  0xc5, 0x42, 0x88, 0x3d, 0x65, 0x30, 0x1c, 0x3e, 0x68, 0x98, 0x1c, 0x3c,
  0x8f, 0x67, 0x20, 0xbc, 0x4f, 0x1e, 0xda, 0x3e, 0x85, 0xe8, 0x64, 0xbe,
  0x02, 0x43, 0xbc, 0x3c, 0x3d, 0x3d, 0xb7, 0x3e, 0x6f, 0x51, 0x1a, 0x3e,
  0x8c, 0x50, 0x29, 0x3e, 0x21, 0xf0, 0x0d, 0x3f, 0x94, 0xe6, 0xe5, 0xbe,
  0x34, 0x3a, 0x12, 0xbf, 0x83, 0x9b, 0xbf, 0xbb, 0x11, 0x43, 0xb1, 0xbc,
  0xb1, 0xc4, 0x08, 0x3e, 0x1b, 0xe2, 0xc7, 0x3e, 0x38, 0x5d, 0x3d, 0xbd,
  0xd8, 0xbf, 0xe4, 0x3c, 0xfe, 0x53, 0xfe, 0xbd, 0x63, 0xca, 0xe2, 0x3e,
  0x32, 0x3c, 0x5a, 0xbe, 0xb5, 0x53, 0xa3, 0x3d, 0xc8, 0x9e, 0x02, 0x3f,
  0xa4, 0xfb, 0x81, 0x3e, 0xea, 0xbc, 0xe9, 0x3e, 0x09, 0xa7, 0x5c, 0x3f,
  0xb9, 0x7f, 0xd3, 0xbe, 0x4e, 0xeb, 0x33, 0xbe, 0x92, 0x55, 0x66, 0xbd,
  0x3a, 0x16, 0x6b, 0xbe, 0x32, 0x65, 0xd5, 0xbd, 0x24, 0xa5, 0x9a, 0xbd,
  0x5e, 0x16, 0x94, 0xbd, 0x00, 0x3e, 0xa1, 0xbe, 0xb0, 0x05, 0xd3, 0x3c,
  0xa3, 0x98, 0x82, 0x3d, 0x0b, 0x1c, 0xb0, 0xbe, 0x1e, 0x2e, 0x44, 0xbe,
  0xa2, 0xdc, 0x4b, 0x3c, 0xa5, 0x41, 0x03, 0x3e, 0x24, 0x4b, 0x94, 0x3d,
  0xdc, 0xf3, 0xd2, 0xbd, 0x1c, 0x61, 0x80, 0x3d, 0xe8, 0xe9, 0xab, 0xbc,
  0x86, 0x5f, 0xe2, 0xba, 0x6a, 0xb8, 0x09, 0xbe, 0xce, 0x8c, 0xf2, 0xbd,
  0xc7, 0xab, 0x0a, 0xbe, 0xd6, 0xed, 0x78, 0x3d, 0xd5, 0x13, 0x01, 0xbe,
  0x89, 0xf4, 0x76, 0xbd, 0x66, 0x47, 0xb7, 0x3c, 0x92, 0x02, 0xa0, 0xbd,
  0x5a, 0xf5, 0xcc, 0x3c, 0x2e, 0x4b, 0xad, 0xbd, 0x10, 0xba, 0x7e, 0x3d,
  0xbd, 0x05, 0x12, 0xbd, 0x8a, 0x00, 0x65, 0xbc, 0x4f, 0xb8, 0x5d, 0x3d,
  0x14, 0xf6, 0x4c, 0x3d, 0xd8, 0x27, 0xbc, 0xbd, 0xd4, 0x1f, 0x37, 0xbd,
  0x34, 0x9e, 0xdb, 0xbb, 0x05, 0x83, 0x1e, 0x3d, 0x32, 0x0b, 0xeb, 0xbd,
  0x68, 0x1a, 0x36, 0xbd, 0x56, 0x9d, 0xa1, 0xbd, 0xdc, 0x60, 0xd1, 0x3c,
  0xe5, 0x70, 0x46, 0x3d, 0x89, 0xea, 0xf1, 0x3d, 0xac, 0x28, 0x10, 0x3e,
  0xff, 0x39, 0xe0, 0x3c, 0xb0, 0x52, 0xb9, 0xbc, 0x61, 0xf1, 0xbc, 0x3e,
  0xb6, 0x6d, 0x11, 0x3f, 0xf8, 0x00, 0x05, 0x3f, 0x82, 0x7c, 0x63, 0xbb,
  0x14, 0x58, 0x0e, 0xbd, 0xf7, 0x66, 0x81, 0xbe, 0x04, 0x15, 0xc0, 0x3e,
  0x38, 0x88, 0x8e, 0xbe, 0xb5, 0xc2, 0x9d, 0x3e, 0xe6, 0x7a, 0x9b, 0x3d,
  0xd9, 0xbc, 0x78, 0xbe, 0x60, 0xa6, 0xb1, 0x3e, 0x2e, 0xc2, 0x7f, 0x3e,
  0x89, 0xa1, 0xfd, 0xbb, 0x62, 0x9e, 0x97, 0xbe, 0xb5, 0x3b, 0xcd, 0xbd,
  0x91, 0x9f, 0x8a, 0x3c, 0x90, 0xb2, 0xf1, 0x3d, 0xdd, 0x77, 0x89, 0xbe,
  0x2a, 0x90, 0xb9, 0x3c, 0x53, 0x69, 0x8c, 0xbd, 0x41, 0x0a, 0xec, 0xbe,
  0x1b, 0x2d, 0x29, 0xbe, 0x35, 0x6f, 0xf6, 0xbd, 0x10, 0x1e, 0x93, 0x3e,
  0x61, 0x34, 0xa8, 0xbe, 0xb6, 0xfa, 0x6d, 0xbd, 0xa4, 0x47, 0x1e, 0x3e,
  0xd9, 0x46, 0x1e, 0x3e, 0xe2, 0xa0, 0x87, 0x3d, 0xe5, 0x36, 0x63, 0xbe,
  0x7e, 0x22, 0x07, 0xbd, 0xed, 0x40, 0x2f, 0xbe, 0x86, 0xb0, 0xbc, 0xbe,
  0x76, 0xd4, 0xbb, 0xbe, 0x20, 0xae, 0xba, 0x3d, 0x3b, 0x3a, 0x3a, 0xbe,
  0xcf, 0xc9, 0xb0, 0xbe, 0xe3, 0x7c, 0x93, 0xbe, 0x78, 0xa4, 0x2b, 0x3d,
  0x40, 0xde, 0x0a, 0xbd, 0x26, 0x19, 0x67, 0xbe, 0x20, 0x2e, 0x21, 0xbd,
  0xab, 0x01, 0xb1, 0x3e, 0x88, 0x80, 0xcc, 0xbd, 0x89, 0x5f, 0x6f, 0xbe,
  0x13, 0x4d, 0x38, 0x3d, 0x26, 0x7d, 0x48, 0xbd, 0x2b, 0x64, 0x46, 0xbe,
  0x92, 0x63, 0x91, 0xbe, 0xec, 0x82, 0xf3, 0xbe, 0x84, 0x14, 0x84, 0x3e,
  0xf4, 0xf7, 0x87, 0xbd, 0x90, 0xb7, 0x00, 0xbf, 0x28, 0x3a, 0x85, 0xbe,
  0x23, 0x12, 0xf6, 0xbd, 0x95, 0x11, 0x82, 0x3d, 0x76, 0xef, 0x64, 0x3d,
  0x9f, 0xe5, 0x94, 0x3d, 0x28, 0x7a, 0x5d, 0x3e, 0xe6, 0x60, 0x11, 0xbd,
  0xf4, 0x30, 0x1c, 0xbe, 0xe6, 0x4f, 0x2c, 0xbd, 0x21, 0x5b, 0x28, 0x3d,
  0xad, 0x3b, 0x02, 0xbe, 0x2d, 0x1a, 0xf8, 0xbe, 0xd5, 0x85, 0xfd, 0xbe,
  0xb6, 0x26, 0xf3, 0x3d, 0x88, 0xb3, 0x96, 0xbd, 0xa2, 0x7c, 0x14, 0xbf,
  0x9c, 0xdb, 0x5a, 0xbd, 0xed, 0xa0, 0xef, 0x3c, 0x8b, 0x0e, 0x39, 0x3e,
  0x35, 0x46, 0x30, 0xbe, 0x12, 0x3b, 0x9b, 0xbd, 0x45, 0x6c, 0x93, 0x3e,
  0xd3, 0x3c, 0xf9, 0xbd, 0x40, 0x20, 0xe7, 0xbd, 0x94, 0x7d, 0x8e, 0x3c,
  0xd6, 0xfe, 0x47, 0xbd, 0xbb, 0x2e, 0x3c, 0x3c, 0xb4, 0x4e, 0xc0, 0xbe,
  0x55, 0xe3, 0x83, 0xbe, 0xae, 0xd8, 0x2d, 0x3e, 0xea, 0xf6, 0x12, 0xbe,
  0x56, 0xd7, 0x06, 0xbf, 0x10, 0xab, 0xe5, 0xbd, 0x1f, 0x6e, 0x4f, 0x3e,
  0x77, 0xeb, 0x8b, 0x3d, 0xf0, 0x02, 0x82, 0xbe, 0x2c, 0x69, 0x90, 0xbd,
  0x08, 0x62, 0x0a, 0x3e, 0x7e, 0xc7, 0x44, 0xbc, 0x85, 0xea, 0x66, 0xbe,
  0xab, 0x80, 0x4b, 0xbd, 0xdc, 0x82, 0xdd, 0x3d, 0xa3, 0xb5, 0x00, 0xbe,
  0x9c, 0x7e, 0x4f, 0xbe, 0x62, 0xfc, 0xf4, 0xbe, 0xbb, 0xc5, 0x4e, 0x3d,
  0xe2, 0x61, 0xa8, 0xbe, 0xef, 0x90, 0x46, 0xbe, 0xa5, 0xe0, 0x0a, 0xbe,
  0x2a, 0x00, 0x33, 0x3d, 0x9b, 0x0a, 0x49, 0x3e, 0x2e, 0xea, 0xb5, 0xbe,
  0x75, 0x75, 0x61, 0xbe, 0x55, 0x4a, 0x32, 0x3e, 0x13, 0x1d, 0x31, 0xbe,
  0xd0, 0xf7, 0x71, 0x3c, 0xf2, 0x04, 0xe2, 0x3d, 0xe3, 0x8f, 0x25, 0x3e,
  0xf7, 0x4b, 0xc8, 0x3c, 0xf4, 0xf1, 0xf8, 0xbe, 0xbe, 0xa7, 0x14, 0xbf,
  0xf6, 0x21, 0xf9, 0x3d, 0x97, 0x2a, 0x1a, 0xbe, 0x5e, 0x43, 0xc0, 0xbe,
  0x5b, 0xe1, 0xa3, 0xbe, 0x83, 0xed, 0xd9, 0x3d, 0x5f, 0xdc, 0x2a, 0x3d,
  0xcb, 0xeb, 0x0b, 0xbf, 0x78, 0x43, 0x33, 0x3e, 0x48, 0x3f, 0x97, 0x3e,
  0x89, 0x69, 0xb9, 0xbd, 0x2e, 0xc8, 0xb0, 0xbc, 0x6c, 0x4b, 0x52, 0x3e,
  0x00, 0x18, 0xb0, 0x3d, 0x00, 0x67, 0x91, 0x3d, 0xca, 0x34, 0xa3, 0xbe,
  0x7c, 0x88, 0xd3, 0xbe, 0x5d, 0x4f, 0x53, 0x3e, 0x62, 0x03, 0x33, 0x3d,
  0x65, 0x23, 0x8e, 0xbe, 0xae, 0x28, 0xa9, 0xbe, 0x7e, 0x66, 0xd3, 0x3b,
  0xbc, 0x6f, 0xb6, 0xbc, 0x00, 0xa6, 0xaa, 0xbe, 0xa4, 0xe6, 0x18, 0xbd,
  0xd0, 0x1d, 0x06, 0x3e, 0x44, 0x5c, 0xc4, 0xbd, 0xde, 0xd6, 0x1b, 0xbd,
  0x98, 0xbd, 0x06, 0x3f, 0xc9, 0x32, 0xfa, 0x3d, 0xc4, 0x89, 0x8f, 0x3e,
  0x48, 0x04, 0x01, 0xbe, 0x28, 0xd9, 0x23, 0xbe, 0x86, 0x17, 0x28, 0x3e,
  0x77, 0x76, 0x96, 0x3d, 0x6a, 0x42, 0x30, 0xbe, 0x3f, 0xc0, 0xc8, 0xbe,
  0x96, 0x21, 0x49, 0x3e, 0x97, 0x0c, 0xfd, 0x3b, 0xc5, 0xfe, 0xcd, 0xbd,
  0xdb, 0x89, 0x9f, 0x3d, 0xee, 0x33, 0x38, 0x3e, 0x7f, 0x2c, 0x44, 0x3e,
  0x8a, 0x96, 0x31, 0xbd, 0xc5, 0x53, 0x75, 0x3d, 0xb6, 0x83, 0x93, 0x3d,
  0x6b, 0x0e, 0x13, 0xbe, 0x3a, 0x38, 0x8b, 0xbd, 0xf0, 0x0e, 0x9c, 0x3d,
  0xd4, 0xbb, 0x8e, 0x3e, 0xd0, 0x8f, 0xe8, 0x3e, 0xd8, 0x7d, 0xe1, 0x3b,
  0x7a, 0xed, 0xf0, 0xbe, 0x3b, 0x23, 0x95, 0x3e, 0x7c, 0xff, 0xad, 0x3d,
  0xe5, 0xc6, 0x4d, 0x3e, 0xbf, 0xe0, 0x94, 0x3e, 0x69, 0xec, 0xf7, 0x3b,
  0x78, 0x91, 0xab, 0xbc, 0x70, 0x11, 0x8f, 0xbe, 0xa8, 0x78, 0x57, 0x3e,
  0x29, 0xfa, 0x5e, 0xbd, 0xdd, 0x82, 0x35, 0xbe, 0xeb, 0x8a, 0xe0, 0x3c,
  0x85, 0xce, 0xbd, 0x3c, 0xa5, 0x59, 0xd0, 0x3d, 0xc7, 0x36, 0x9e, 0x3e,
  0x53, 0x25, 0x73, 0x3e, 0x7b, 0xa7, 0xa8, 0xbd, 0xa2, 0xc0, 0xef, 0x3e,
  0x1c, 0x58, 0xa1, 0x3e, 0xae, 0xa2, 0x9a, 0x3d, 0xb0, 0x03, 0x76, 0x3e,
  0x61, 0x29, 0xb4, 0x3e, 0x83, 0x1c, 0x57, 0x3e, 0x6f, 0x1a, 0x53, 0x3e,
  0x1d, 0x03, 0xc5, 0x3e, 0x56, 0x4b, 0x94, 0x3d, 0x66, 0xb8, 0xe8, 0x3d,
  0x4a, 0x87, 0x95, 0x3d, 0x5b, 0xaf, 0x4e, 0x3d, 0xcd, 0x06, 0x1f, 0x3e,
  0x23, 0xc2, 0xd8, 0x3d, 0xbd, 0xc9, 0x2d, 0xbd, 0xc0, 0x28, 0x5a, 0xbc,
  0x1a, 0x5a, 0x91, 0x3d, 0x3f, 0x43, 0x72, 0xbd, 0x14, 0xd3, 0xa4, 0xbd,
  0xa5, 0x6f, 0x18, 0x3d, 0x18, 0x8b, 0x97, 0xbc, 0x62, 0xc7, 0xee, 0x3d,
  0x86, 0x89, 0xae, 0x3c, 0xda, 0x74, 0xc6, 0x3b, 0xab, 0x9d, 0xb2, 0x3d,
  0x04, 0xd5, 0x8d, 0x3e, 0x44, 0x36, 0xab, 0x3c, 0xe2, 0xb7, 0x13, 0x3e,
  0xa6, 0x62, 0xca, 0x3b, 0xef, 0xab, 0x3b, 0xbd, 0xcb, 0xbc, 0xb2, 0x3d,
  0xd4, 0x2e, 0x01, 0x3e, 0x82, 0xef, 0x14, 0x3d, 0xeb, 0x20, 0xd2, 0x3d,
  0xe2, 0x82, 0x9a, 0x3d, 0xce, 0xff, 0x08, 0x3e, 0x49, 0x5b, 0x50, 0x3e,
  0x49, 0x5b, 0x9b, 0x3d, 0xe4, 0x09, 0xdd, 0x3d, 0xbc, 0x4a, 0xf2, 0xbd,
  0x4f, 0x18, 0x43, 0x3e, 0xe7, 0x7a, 0x37, 0x3f, 0xdb, 0xa8, 0x2b, 0x3e,
  0xfc, 0xfe, 0xee, 0x3e, 0x49, 0xc2, 0x0f, 0x3e, 0xe0, 0xa8, 0x0a, 0x3e,
  0xd0, 0x7b, 0x23, 0x3e, 0x2c, 0xeb, 0x3f, 0x3e, 0xa0, 0x93, 0x49, 0x3d,
  0x06, 0x9e, 0x33, 0x3d, 0x36, 0x24, 0xa5, 0xbd, 0x9f, 0xbf, 0x40, 0xbc,
  0x3a, 0x22, 0x75, 0x3e, 0x88, 0xe4, 0x4a, 0x3e, 0x62, 0x66, 0x89, 0x3d,
  0xfb, 0x17, 0x29, 0xbc, 0x7b, 0x07, 0xd1, 0xbd, 0x6e, 0xd4, 0xfc, 0x3d,
  0xc3, 0x21, 0xcc, 0xbb, 0x66, 0xcb, 0x3d, 0xbe, 0x1a, 0xf3, 0xaa, 0x3d,
  0x1a, 0x4f, 0xb0, 0xbd, 0xd6, 0xb7, 0x62, 0xbe, 0x35, 0x55, 0x6e, 0xbe,
  0x5b, 0x24, 0x24, 0x3e, 0x20, 0x3f, 0x67, 0x3e, 0x1e, 0xe0, 0x99, 0xbe,
  0x41, 0x5e, 0x4a, 0xbd, 0x08, 0x58, 0xa5, 0x3e, 0x91, 0x04, 0x44, 0x3e,
  0xaf, 0x5b, 0x50, 0x3d, 0xd7, 0xe1, 0x8f, 0xbc, 0x24, 0x13, 0xdc, 0x3c,
  0x5a, 0xca, 0x5b, 0xbd, 0xd3, 0x6d, 0x77, 0x3d, 0xb2, 0xe6, 0xf5, 0xbd,
  0x92, 0x8d, 0x0d, 0x3e, 0xbd, 0xa4, 0xb2, 0xbd, 0x1a, 0xde, 0x95, 0xbe,
  0x1c, 0xfc, 0x2a, 0xbe, 0x28, 0x3b, 0xb2, 0x3e, 0xc1, 0x79, 0x33, 0xbd,
  0x1b, 0xdb, 0x76, 0x3d, 0xfa, 0x1e, 0x15, 0xbe, 0xd4, 0x02, 0x4e, 0x3d,
  0xbe, 0x55, 0x24, 0xbe, 0x94, 0xaf, 0x89, 0xbe, 0x38, 0x05, 0x8e, 0x3e,
  0xd1, 0x33, 0x01, 0xbe, 0x45, 0x4a, 0xed, 0xbd, 0x87, 0x31, 0xd8, 0x3d,
  0xd5, 0x2f, 0x27, 0xbe, 0x80, 0x00, 0x07, 0xbe, 0x9e, 0xed, 0x09, 0x3f,
  0xd6, 0x44, 0xc0, 0xbd, 0xe3, 0x6b, 0x71, 0xbd, 0xd5, 0x33, 0x29, 0x3f,
  0x24, 0x37, 0x21, 0xbd, 0x6f, 0x87, 0x24, 0xbe, 0x84, 0x50, 0x27, 0xbe,
  0xd1, 0x52, 0xab, 0xbd, 0x0e, 0xed, 0x99, 0xbd, 0xff, 0x57, 0xb6, 0xbd,
  0xb3, 0x99, 0xff, 0x3e, 0x26, 0xaa, 0x4d, 0xbe, 0x84, 0x6c, 0xaa, 0xbc,
  0x80, 0xc8, 0xec, 0xbd, 0x17, 0x40, 0x18, 0xbd, 0x1a, 0x00, 0x24, 0x3e,
  0xc8, 0x84, 0x9c, 0x3e, 0x8f, 0x9d, 0xad, 0xbe, 0x75, 0x07, 0x89, 0x3d,
  0x0c, 0xa3, 0x60, 0x3f, 0x6e, 0xd6, 0xe4, 0xbd, 0xec, 0x21, 0x13, 0xbe,
  0xda, 0xdb, 0xb1, 0xbd, 0x68, 0xfc, 0xb5, 0x3d, 0x6e, 0x76, 0xbc, 0xbc,
  0xd5, 0x97, 0xa9, 0xbe, 0x99, 0x7b, 0xe3, 0x3d, 0x9d, 0x3a, 0x5c, 0xbe,
  0xb3, 0xba, 0x63, 0xbe, 0x29, 0x89, 0x13, 0xbe, 0xb0, 0x7f, 0x9a, 0xbd,
  0xfc, 0x20, 0xc2, 0x3a, 0x81, 0x95, 0xc4, 0x3e, 0x59, 0xee, 0xfb, 0xbd,
  0x85, 0x91, 0x35, 0xbe, 0xe8, 0x23, 0x5b, 0x3f, 0xa8, 0xc1, 0xf4, 0x3c,
  0xa9, 0x12, 0xb8, 0xbe, 0xe0, 0x06, 0xb0, 0xbd, 0xf1, 0x83, 0x56, 0x3d,
  0xf9, 0x32, 0xb9, 0xbd, 0xe7, 0x6c, 0x66, 0xbe, 0x46, 0x11, 0x89, 0x3b,
  0x1e, 0xd5, 0xa4, 0x3c, 0x25, 0x13, 0x4f, 0xbe, 0xf3, 0x7e, 0xc7, 0x3e,
  0x51, 0x1a, 0x9d, 0xbd, 0xb0, 0xfb, 0x35, 0x3e, 0xc2, 0x90, 0x21, 0x3e,
  0x7e, 0x45, 0xe0, 0xbd, 0x09, 0x35, 0xce, 0x3d, 0x63, 0x5d, 0x96, 0x3e,
  0xa6, 0x8b, 0x14, 0xbd, 0xd7, 0x71, 0xa2, 0xbe, 0x2b, 0x18, 0xd1, 0xbc,
  0x26, 0xb7, 0xbc, 0x3c, 0x6f, 0x32, 0x38, 0xbe, 0x43, 0x70, 0x03, 0xbe,
  0x18, 0x97, 0xac, 0xbc, 0x8a, 0xfb, 0x94, 0xbe, 0x2c, 0x53, 0x72, 0xbe,
  0x35, 0x35, 0x11, 0x3e, 0xd7, 0xec, 0x7d, 0xbe, 0x08, 0xf9, 0x2c, 0x3e,
  0x9e, 0xe7, 0xad, 0x3e, 0x0f, 0x23, 0xe6, 0xbd, 0x82, 0x64, 0x71, 0xbe,
  0xf2, 0x35, 0x1d, 0x3f, 0xaf, 0x9a, 0x5c, 0xbc, 0x7b, 0xf4, 0xf6, 0xbe,
  0xfa, 0x0c, 0x47, 0xbe, 0x53, 0x34, 0x21, 0x3e, 0xb9, 0x72, 0x1c, 0xbe,
  0x80, 0xb6, 0x5f, 0xbe, 0x4f, 0xd0, 0x62, 0x3e, 0x85, 0x07, 0xb6, 0xbe,
  0x9d, 0x29, 0xeb, 0xbe, 0x1a, 0x1a, 0x1d, 0xbd, 0x0e, 0x13, 0xd3, 0xbe,
  0x6e, 0xb8, 0x5c, 0x3e, 0xb2, 0x87, 0xd4, 0x3e, 0x15, 0x65, 0x87, 0xbe,
  0x77, 0x5c, 0xdb, 0xbe, 0x3b, 0xae, 0xaa, 0x3e, 0xed, 0x4d, 0x4c, 0xbd,
  0xea, 0xfd, 0x15, 0xbf, 0x33, 0x87, 0x8d, 0xbd, 0xbe, 0xe6, 0x8a, 0xbd,
  0x5c, 0xfc, 0xbb, 0xbd, 0xbf, 0x15, 0xc8, 0xbe, 0xd8, 0x71, 0x03, 0x3e,
  0x14, 0x4e, 0xb3, 0xbd, 0xb8, 0x49, 0x28, 0xbe, 0xa8, 0x43, 0x10, 0xbc,
  0xf1, 0xef, 0xf5, 0x3c, 0xd7, 0x8d, 0xbe, 0x3d, 0xe0, 0x3c, 0x9c, 0x3e,
  0x1d, 0x07, 0xb0, 0xbe, 0x1c, 0xa3, 0xb7, 0xbe, 0xf0, 0xc8, 0x8e, 0x3d,
  0x15, 0xb2, 0xaa, 0xbd, 0x44, 0x21, 0xa8, 0xbd, 0x8a, 0xae, 0x10, 0xbe,
  0xaf, 0x40, 0x29, 0xbd, 0xda, 0x4a, 0x31, 0xbd, 0xb7, 0x8f, 0xad, 0xbe,
  0x2c, 0xc8, 0x9a, 0x3c, 0x72, 0xc7, 0xa4, 0xbe, 0x9c, 0x17, 0x3d, 0xbf,
  0xc1, 0x06, 0xda, 0x3e, 0x87, 0xcd, 0x04, 0x3f, 0x3a, 0xef, 0xae, 0xbd,
  0xd6, 0xe7, 0x52, 0x3e, 0x9c, 0x11, 0xc0, 0xbe, 0x37, 0x80, 0x7e, 0xbe,
  0x64, 0x2a, 0x5a, 0x3d, 0x14, 0x81, 0xf9, 0x3b, 0xe4, 0x39, 0x71, 0x3e,
  0x52, 0x3b, 0x37, 0xbe, 0x28, 0x7a, 0xa4, 0x3e, 0xe1, 0x4a, 0x37, 0x3e,
  0x93, 0x46, 0xa8, 0xbe, 0xb4, 0x23, 0xd7, 0xbd, 0xe0, 0x15, 0xc7, 0xbd,
  0xce, 0x8a, 0x3f, 0xbf, 0x92, 0x9d, 0x1a, 0x3f, 0x10, 0xd5, 0x31, 0x3e,
  0xe5, 0xe7, 0xea, 0x3d, 0xa9, 0x1f, 0xac, 0x3e, 0x58, 0x0f, 0xbc, 0x3d,
  0x01, 0xf2, 0x6b, 0x3d, 0xdc, 0xb9, 0x8a, 0x3e, 0xc5, 0xb7, 0xef, 0x3e,
  0x91, 0x2f, 0x40, 0x3d, 0x97, 0x15, 0x48, 0x3d, 0x76, 0xff, 0x18, 0x3f,
  0xd3, 0x61, 0xb7, 0x3e, 0x7e, 0x3f, 0xd8, 0xbc, 0xf9, 0x8c, 0xbf, 0x3d,
  0x2b, 0x6a, 0x79, 0x3d, 0x49, 0x5b, 0x8f, 0x3c, 0xee, 0x5a, 0xe9, 0x3d,
  0x0d, 0x21, 0xce, 0x3d, 0x94, 0x33, 0x35, 0x3e, 0x55, 0x89, 0xbd, 0x3c,
  0xf5, 0x86, 0xaf, 0x3d, 0xe5, 0x9f, 0x0f, 0x3e, 0x98, 0x5e, 0x3a, 0x3b,
  0x5f, 0xb7, 0x1f, 0x3e, 0x42, 0xb9, 0x5d, 0x3d, 0x7c, 0xe5, 0xda, 0x3d,
  0xd9, 0xd0, 0x35, 0x3e, 0x63, 0x21, 0xb5, 0x3d, 0xc9, 0xd3, 0x08, 0x3e,
  0x2f, 0x4d, 0x61, 0xbd, 0x0c, 0xf0, 0x0e, 0x3e, 0x3e, 0x6f, 0x28, 0xbe,
  0x02, 0x42, 0xa4, 0xbd, 0xa3, 0xb7, 0x85, 0x3c, 0x7e, 0x44, 0xb3, 0xbd,
  0x2f, 0x27, 0x1e, 0x3d, 0x0f, 0xac, 0xfe, 0x3c, 0x3d, 0x6c, 0x1b, 0xbd,
  0x7e, 0xa9, 0x27, 0xbe, 0x5b, 0xea, 0x84, 0x3c, 0x5c, 0xe8, 0x1b, 0xbd,
  0x48, 0x13, 0xc7, 0xbd, 0x4d, 0xf3, 0x22, 0x3d, 0x4c, 0xa2, 0x14, 0xbd,
  0xf2, 0xe2, 0x94, 0x3c, 0x18, 0xee, 0x87, 0x3d, 0x16, 0xae, 0xfb, 0xbc,
  0xb2, 0x20, 0x29, 0xbf, 0x30, 0x7f, 0x1c, 0xbd, 0x40, 0xa7, 0x70, 0xbe,
  0x50, 0xe6, 0xa8, 0xbd, 0x98, 0x33, 0x73, 0xbc, 0xde, 0x05, 0xb1, 0xbd,
  0xea, 0x1b, 0x3f, 0xba, 0xb1, 0x6f, 0xd0, 0xbd, 0x3a, 0x71, 0x21, 0x3d,
  0x3d, 0x1b, 0x09, 0x3e, 0x11, 0xb6, 0xac, 0xbd, 0x17, 0x26, 0x41, 0xbe,
  0xa6, 0x4a, 0xe7, 0xbc, 0x8f, 0x9f, 0x14, 0x3e, 0xb4, 0x6f, 0x77, 0xbe,
  0xd9, 0x1e, 0xad, 0x3d, 0x6f, 0x74, 0x16, 0xbd, 0x1c, 0xac, 0x95, 0x3e,
  0x92, 0x67, 0xc3, 0xbc, 0xa9, 0xbd, 0xd0, 0xb9, 0x3e, 0x41, 0x13, 0xba,
  0xf2, 0xa9, 0x4d, 0x3e, 0xaf, 0xd8, 0xba, 0x3d, 0x47, 0xa6, 0xf5, 0xbc,
  0x05, 0x5f, 0x8f, 0x3d, 0x32, 0xf1, 0x00, 0x3e, 0x6c, 0x02, 0x4c, 0xbb,
  0xd1, 0x8a, 0x45, 0x3d, 0xef, 0xd3, 0x40, 0x3c, 0xfc, 0x41, 0x97, 0x3d,
  0x1a, 0x5a, 0x0a, 0xbe, 0x28, 0xfd, 0x17, 0x3e, 0x5f, 0xcb, 0x64, 0xbd,
  0xee, 0x23, 0xb9, 0x3d, 0xe8, 0xda, 0x19, 0x3e, 0x31, 0x1c, 0xed, 0xbc,
  0xbf, 0x2f, 0x86, 0x3d, 0x0b, 0x97, 0xfe, 0x3d, 0xde, 0xd4, 0x9f, 0x3d,
  0x75, 0xe0, 0xd0, 0xbe, 0xcf, 0xe4, 0x90, 0x3d, 0x36, 0xaf, 0xa7, 0x3d,
  0x36, 0xbf, 0x5c, 0x3e, 0x0f, 0x32, 0x5d, 0xbc, 0x22, 0x80, 0xee, 0x3d,
  0xea, 0xa0, 0x74, 0x3e, 0xb5, 0x83, 0x18, 0xbe, 0x44, 0x7c, 0x91, 0x3c,
  0x5a, 0x5f, 0xec, 0xbd, 0xbc, 0x4c, 0x86, 0x3d, 0x51, 0x91, 0x45, 0xbd,
  0xec, 0x6b, 0x57, 0xbd, 0xc8, 0xcd, 0xf4, 0xbe, 0x95, 0x75, 0x07, 0x3e,
  0x92, 0xf9, 0x84, 0x3d, 0x42, 0x5b, 0x1d, 0xbf, 0xc4, 0x6f, 0x85, 0x3d,
  0x38, 0x08, 0x25, 0xbd, 0xd8, 0x0e, 0x81, 0x3e, 0xda, 0xfa, 0x02, 0xbe,
  0xda, 0xbf, 0xab, 0xbc, 0xea, 0x54, 0x5d, 0x3e, 0x6e, 0x35, 0xd4, 0xbe,
  0xf2, 0x88, 0x54, 0xbc, 0xa8, 0x50, 0x2c, 0x3e, 0xd7, 0x8e, 0xe4, 0x3c,
  0x36, 0x00, 0x2c, 0xbd, 0x46, 0x75, 0xec, 0xbd, 0xc3, 0x43, 0x8d, 0xbe,
  0x11, 0xfe, 0x1a, 0x3e, 0xa8, 0x02, 0xf1, 0x3c, 0xa5, 0x8a, 0x0d, 0xbf,
  0x2c, 0x36, 0x56, 0x3c, 0xa0, 0x47, 0x09, 0x3e, 0x8a, 0xe5, 0x15, 0x3e,
  0xfe, 0xee, 0xc1, 0xbd, 0x25, 0x3e, 0x1b, 0xbd, 0x4e, 0xbe, 0x17, 0x3e,
  0xa3, 0x21, 0x72, 0xbe, 0x55, 0x76, 0xc1, 0x3d, 0x8e, 0x31, 0x8e, 0x3e,
  0x34, 0xa1, 0x0e, 0x3a, 0xba, 0x7e, 0x2c, 0x3e, 0x4d, 0x63, 0x19, 0xbe,
  0x07, 0xb2, 0xbd, 0xbe, 0xd4, 0xfc, 0x35, 0x3e, 0xe8, 0xc0, 0x2a, 0x3e,
  0xa3, 0xb3, 0x07, 0xbf, 0x07, 0x76, 0x8a, 0x3d, 0x6d, 0xb1, 0x50, 0x3e,
  0xae, 0x46, 0x63, 0x3d, 0x77, 0x66, 0xfe, 0xbd, 0x7d, 0x53, 0xe9, 0xbd,
  0x96, 0x72, 0xfa, 0xbd, 0xe2, 0xb9, 0xd1, 0x3d, 0xbc, 0xde, 0xef, 0x3d,
  0x87, 0x4b, 0x4c, 0x3d, 0xa8, 0xd2, 0x1d, 0xbe, 0x14, 0x3d, 0x46, 0x3e,
  0x70, 0x5f, 0x3d, 0xbd, 0x5b, 0x1b, 0xd1, 0xbc, 0x01, 0x86, 0x43, 0x3e,
  0x29, 0x31, 0xbc, 0x3d, 0x9a, 0x9d, 0x6e, 0xbe, 0xae, 0x44, 0x83, 0x3b,
  0x1b, 0xbd, 0x60, 0x3e, 0xac, 0xbb, 0x07, 0x3b, 0x42, 0xdc, 0xa5, 0xbd,
  0x53, 0xfc, 0x31, 0x3d, 0x19, 0xe7, 0x18, 0xbd, 0xd9, 0x1f, 0x8f, 0xbd,
  0xfb, 0x10, 0xbb, 0xbc, 0xfe, 0x6e, 0xe0, 0x3d, 0x50, 0x2c, 0x14, 0xbd,
  0xe8, 0xb6, 0x86, 0x3e, 0x89, 0xdd, 0xba, 0xbc, 0x85, 0x87, 0x87, 0xbe,
  0xea, 0xe1, 0x43, 0x3e, 0xc9, 0x2f, 0x8e, 0x3e, 0x5c, 0xd4, 0x75, 0xbe,
  0x9e, 0x56, 0x8b, 0x3d, 0xc4, 0x1b, 0xf7, 0x3e, 0x62, 0x90, 0x85, 0x3d,
  0x3f, 0x6a, 0xc7, 0x3d, 0x93, 0xe7, 0x40, 0x3e, 0xec, 0x52, 0x6f, 0x3e,
  0x13, 0x96, 0x0c, 0xbe, 0x0f, 0xe3, 0x46, 0x3e, 0xd4, 0x3c, 0xcd, 0x3e,
  0xb3, 0x57, 0x06, 0xbd, 0x7b, 0xd4, 0xfe, 0x3d, 0x8b, 0x1e, 0x82, 0xbc,
  0xdb, 0xe8, 0x78, 0xbe, 0xe5, 0xae, 0xc9, 0x3e, 0x75, 0x70, 0xca, 0x3d,
  0x24, 0x80, 0xa5, 0x3c, 0x26, 0x6d, 0x2f, 0xbd, 0x06, 0x11, 0x7c, 0x3e,
  0xdf, 0x5f, 0x50, 0xbd, 0xf6, 0x24, 0x60, 0x3d, 0x89, 0x1c, 0xd2, 0x3d,
  0x61, 0x12, 0x81, 0x3e, 0x91, 0x0a, 0x20, 0x3d, 0x42, 0x4e, 0x75, 0x3d,
  0x81, 0x55, 0x98, 0x3e, 0x94, 0xaf, 0x57, 0xbe, 0x25, 0xf7, 0xeb, 0xbe,
  0x91, 0x30, 0x3f, 0x3d, 0x33, 0x41, 0x0f, 0xbe, 0x37, 0x65, 0xf8, 0x3d,
  0xea, 0xb7, 0x9a, 0x3e, 0xf0, 0xfc, 0x0b, 0x3e, 0xcf, 0xd9, 0xc5, 0xbc,
  0x05, 0x80, 0x75, 0xbd, 0xe6, 0x92, 0xee, 0x3d, 0x42, 0xf5, 0xf1, 0x3c,
  0x57, 0x47, 0xbd, 0x3d, 0xa5, 0xff, 0xd1, 0x3e, 0x82, 0xdf, 0xae, 0x39,
  0x03, 0x39, 0x93, 0x3d, 0x62, 0x69, 0x3f, 0x3f, 0xe5, 0x5d, 0x22, 0xbf,
  0xa9, 0xfa, 0xf9, 0xbe, 0x32, 0x52, 0xb5, 0x3c, 0x7e, 0xa9, 0xdc, 0xbd,
  0x03, 0x18, 0xe1, 0xbc, 0x8f, 0x73, 0x84, 0x3e, 0xd3, 0x7d, 0x91, 0xbd,
  0x74, 0xc0, 0xae, 0xbe, 0xb8, 0x00, 0xe0, 0xbe, 0x9b, 0x28, 0x29, 0x3e,
  0x0b, 0x8b, 0x95, 0xbe, 0xdb, 0x6e, 0x83, 0xbe, 0xb3, 0x7e, 0x07, 0x3e,
  0x4d, 0x58, 0x08, 0x3e, 0xbc, 0xff, 0x67, 0x3e, 0x31, 0x06, 0x07, 0x3f,
  0xc9, 0x97, 0xef, 0xbe, 0x54, 0xcd, 0x36, 0xbe, 0x7a, 0x2a, 0x4e, 0xbe,
  0x10, 0xa8, 0x90, 0xbd, 0x78, 0x8a, 0x5e, 0xbe, 0xad, 0x97, 0xbb, 0xbd,
  0xa3, 0x2d, 0x3f, 0xbd, 0x34, 0xf1, 0xb9, 0xbe, 0xb5, 0x9c, 0x6c, 0x3e,
  0x63, 0xc7, 0xad, 0xbc, 0x70, 0xf7, 0xdc, 0xbe, 0x0f, 0x89, 0x68, 0xbe,
  0xfc, 0xc6, 0x58, 0x3d, 0x7c, 0x12, 0x58, 0xbe, 0x96, 0xc8, 0x60, 0xbd,
  0x87, 0xe8, 0x48, 0xbe, 0x3e, 0x44, 0xb3, 0xbc, 0x34, 0xcf, 0xe1, 0xbb,
  0x2b, 0xe6, 0xe4, 0x3c, 0x03, 0x3c, 0x94, 0xbc, 0x1c, 0x6f, 0x2a, 0xbd,
  0xef, 0x19, 0xcd, 0x3c, 0x33, 0x4c, 0x23, 0xbe, 0x7b, 0x0b, 0xaf, 0xbd,
  0x0b, 0x24, 0x8f, 0x3c, 0xc3, 0x02, 0xe8, 0xbc, 0x6f, 0x88, 0x29, 0x3d,
  0x0b, 0x61, 0x4e, 0x3d, 0xd5, 0x4f, 0x82, 0xbd, 0x7a, 0x22, 0x2a, 0xbd,
  0xd0, 0xe2, 0xd1, 0x3c, 0xb1, 0xff, 0x0d, 0x3e, 0xa7, 0xbd, 0x70, 0x3b,
  0x44, 0x8d, 0xa0, 0xbc, 0x89, 0x4d, 0x0d, 0xbe, 0x1d, 0xaa, 0x7c, 0xbc,
  0x42, 0x12, 0x05, 0x3d, 0x7b, 0x2b, 0x20, 0xbe, 0x69, 0x78, 0x8b, 0x3e,
  0x2e, 0x2d, 0xbb, 0x3d, 0xdb, 0xd0, 0x00, 0xbe, 0x08, 0xfc, 0x84, 0x3d,
  0x5b, 0x89, 0x2d, 0x3d, 0x87, 0x1c, 0xe4, 0x3b, 0x33, 0x4e, 0xc4, 0xbd,
  0x98, 0x87, 0x47, 0x3e, 0x44, 0x7c, 0xda, 0xbc, 0x2c, 0xb0, 0x86, 0x3e,
  0xb0, 0xcc, 0xe2, 0xbe, 0xe3, 0xd5, 0x73, 0xbe, 0x57, 0x17, 0x79, 0x3e,
  0x4c, 0x55, 0xa3, 0xbd, 0xd7, 0x55, 0x1b, 0x3e, 0x83, 0xe8, 0x0a, 0xbe,
  0x6c, 0xe6, 0xa1, 0x3e, 0x6b, 0xc5, 0xa7, 0x3c, 0x86, 0x45, 0x26, 0xbd,
  0x97, 0x11, 0x5f, 0x3d, 0xb1, 0x26, 0x81, 0x3d, 0x02, 0x70, 0xb5, 0x3b,
  0x3e, 0xaf, 0xa1, 0xbd, 0x01, 0x81, 0xaf, 0x3e, 0x3d, 0x80, 0x3c, 0xbe,
  0xe8, 0x0d, 0x10, 0x3e, 0x9e, 0x8d, 0x81, 0xbe, 0xd2, 0x12, 0x5a, 0x3e,
  0x4a, 0x27, 0x92, 0xbc, 0x05, 0x7c, 0xa9, 0x3c, 0xe5, 0x94, 0x8e, 0x3e,
  0xa8, 0xb2, 0x07, 0x3d, 0xfa, 0x48, 0xab, 0x3e, 0x68, 0x26, 0xb6, 0x3b,
  0x8f, 0xae, 0x42, 0x3d, 0xcd, 0x87, 0x13, 0xbd, 0xfb, 0xf7, 0x94, 0xbb,
  0x2c, 0x04, 0x0c, 0xbe, 0x59, 0xe9, 0x15, 0xbd, 0x0e, 0x93, 0xb1, 0x3e,
  0xcf, 0xe0, 0x19, 0xbe, 0x64, 0x7e, 0x8f, 0x3e, 0xae, 0x1e, 0x3e, 0x3d,
  0xda, 0x2c, 0x5a, 0x3e, 0x2d, 0xa4, 0xc3, 0xbd, 0x2c, 0x59, 0x62, 0x3e,
  0xca, 0x27, 0x67, 0x3d, 0xdd, 0xd2, 0x06, 0x3e, 0x31, 0x7c, 0x93, 0x3e,
  0xf8, 0x96, 0x0a, 0xbe, 0xb8, 0x8f, 0x80, 0x3e, 0x7a, 0xf2, 0x29, 0x3d,
  0x5d, 0x9a, 0x2b, 0xbe, 0x71, 0x70, 0x80, 0xbe, 0x4b, 0x92, 0x90, 0xbd,
  0x49, 0x89, 0x84, 0x3e, 0xc5, 0x6d, 0x8b, 0xbd, 0xa6, 0xeb, 0x43, 0x3e,
  0xed, 0x6e, 0x33, 0x3e, 0xe8, 0x00, 0x21, 0x3e, 0xe1, 0x32, 0x94, 0xbe,
  0xf1, 0xde, 0x9f, 0x3e, 0x28, 0xce, 0x94, 0x3e, 0x22, 0x22, 0x48, 0x3e,
  0x1b, 0xe6, 0x00, 0x3f, 0xad, 0x66, 0x5b, 0xbe, 0x8d, 0x5b, 0xef, 0x3c,
  0x72, 0x7a, 0x39, 0xbd, 0xc1, 0x9c, 0x26, 0xbe, 0x09, 0x3f, 0x24, 0xbe,
  0x7d, 0xe0, 0x83, 0xbe, 0x79, 0xdc, 0xcf, 0x3e, 0xc2, 0xe9, 0x8c, 0xbe,
  0x1f, 0xbd, 0x9e, 0xbd, 0x09, 0xf8, 0x40, 0x3e, 0x1f, 0xa1, 0xab, 0x3e,
  0x8e, 0xe2, 0x60, 0xbe, 0xab, 0x3f, 0x8a, 0x3e, 0xbd, 0x7c, 0x4b, 0x3e,
  0x70, 0x9b, 0x00, 0xbd, 0xd7, 0xc3, 0xd4, 0x3e, 0x44, 0xb0, 0x0f, 0xbe,
  0x79, 0xf1, 0xb0, 0x3b, 0x6e, 0x7a, 0x56, 0xbe, 0x9f, 0x8a, 0x94, 0xbe,
  0x50, 0x59, 0x24, 0xbe, 0xe5, 0xb9, 0x73, 0xbe, 0x93, 0x37, 0x0f, 0x3e,
  0x76, 0x75, 0x23, 0x3d, 0xe7, 0xde, 0x76, 0xbe, 0x26, 0xa8, 0x8d, 0x3e,
  0x77, 0x6f, 0x37, 0x3d, 0xc9, 0xc2, 0x5a, 0x3d, 0x83, 0x02, 0x01, 0x3f,
  0x31, 0xa0, 0x36, 0x3e, 0x01, 0xa5, 0x40, 0xbe, 0xf5, 0xf6, 0x95, 0x3e,
  0x06, 0x27, 0x1f, 0xbd, 0xc9, 0x73, 0xd2, 0xbc, 0x24, 0xf1, 0x97, 0x3d,
  0x25, 0xa0, 0xe3, 0xbd, 0x23, 0xff, 0x9e, 0xbd, 0xa0, 0xdf, 0xa4, 0xbd,
  0x46, 0xe8, 0x58, 0x3e, 0xb4, 0x1e, 0xe6, 0xbd, 0x94, 0x41, 0x8d, 0xbd,
  0x57, 0x27, 0x11, 0x3e, 0x9b, 0x5e, 0x92, 0x3e, 0x43, 0x24, 0x6c, 0x3d,
  0xf1, 0x2c, 0x09, 0x3f, 0xb1, 0xca, 0x30, 0x3e, 0xd0, 0x4e, 0x24, 0x3c,
  0xad, 0x72, 0x8f, 0x3e, 0xa4, 0x73, 0x21, 0xbe, 0xae, 0x53, 0x90, 0xbc,
  0x67, 0x72, 0xb1, 0xbc, 0x63, 0xbc, 0xe9, 0x3d, 0xf8, 0xe4, 0x39, 0xbe,
  0xb5, 0xac, 0x26, 0x3d, 0x87, 0x84, 0xa0, 0x3e, 0x21, 0x1a, 0x2c, 0xbe,
  0xc6, 0x9c, 0xb7, 0xbe, 0xda, 0x85, 0xd0, 0x3e, 0x25, 0x6b, 0x99, 0x3e,
  0xca, 0xa0, 0x5e, 0xbe, 0x1a, 0x52, 0xe7, 0x3e, 0x09, 0x75, 0x2a, 0x3e,
  0xdd, 0x0f, 0x42, 0x3d, 0xdc, 0xa4, 0x8c, 0x3e, 0xc5, 0x87, 0x69, 0xbd,
  0xee, 0x61, 0x9a, 0x3d, 0x41, 0x4c, 0x31, 0xbd, 0xa2, 0xdb, 0x84, 0xbd,
  0x65, 0x16, 0x00, 0xbe, 0xd3, 0x80, 0x94, 0xbe, 0x8e, 0xe1, 0x75, 0xbd,
  0xa6, 0x0f, 0xb9, 0xbd, 0xe9, 0x98, 0x23, 0xbf, 0xf6, 0x65, 0xd9, 0x3e,
  0x99, 0x37, 0x1e, 0x3e, 0xb4, 0xc1, 0x33, 0xbe, 0x23, 0x5d, 0xc2, 0x3e,
  0x36, 0x24, 0x4e, 0xbc, 0xe5, 0x63, 0xd0, 0xbd, 0xd2, 0x42, 0xcb, 0x3e,
  0x61, 0xcc, 0x66, 0xbe, 0x90, 0x87, 0x86, 0xbe, 0xd3, 0xb3, 0xba, 0xbd,
  0xb2, 0xaf, 0xc8, 0x3d, 0x5a, 0xb8, 0x1c, 0xbe, 0x24, 0x2d, 0x22, 0xbe,
  0x3c, 0x33, 0x63, 0xbe, 0xc1, 0x1c, 0x51, 0xbe, 0x68, 0xa5, 0xe9, 0xbe,
  0x82, 0xa7, 0x2a, 0xbc, 0xed, 0x51, 0xac, 0x3e, 0xa4, 0x10, 0x95, 0xbd,
  0x0a, 0xe0, 0xd5, 0x3d, 0x5d, 0xaf, 0xd9, 0xbe, 0x46, 0x6d, 0x21, 0x3e,
  0x5b, 0x53, 0x26, 0xbc, 0x88, 0x90, 0xdd, 0xbd, 0x19, 0x38, 0x99, 0x3e,
  0x84, 0x14, 0x33, 0xbe, 0x1a, 0xe6, 0x88, 0xbd, 0x50, 0x12, 0x08, 0xbe,
  0x7f, 0x2c, 0xa9, 0xbe, 0x3f, 0x80, 0xad, 0xbc, 0x15, 0xf4, 0xb1, 0xbe,
  0x3c, 0x89, 0x9f, 0xbe, 0xa7, 0xd8, 0xec, 0x3e, 0xe4, 0x38, 0xd3, 0x3e,
  0x83, 0xdd, 0x56, 0xbe, 0x93, 0xf7, 0x94, 0x3c, 0x2d, 0x41, 0x94, 0xbe,
  0xb8, 0xca, 0x08, 0xbd, 0x08, 0x6c, 0x4b, 0xbe, 0x8f, 0x2e, 0xba, 0x3c,
  0xe3, 0xbb, 0xcc, 0xbd, 0xa9, 0xd7, 0x05, 0xbf, 0x52, 0x51, 0x36, 0x3e,
  0x5d, 0x9b, 0x83, 0xbd, 0x76, 0x23, 0xc6, 0xbe, 0xf6, 0x91, 0x93, 0xbe,
  0xe0, 0x30, 0x50, 0xbd, 0x9f, 0xa0, 0x50, 0xbe, 0x88, 0x61, 0xd9, 0x3e,
  0x4d, 0xc8, 0x20, 0x3e, 0x1d, 0xb1, 0x1c, 0xbe, 0xb9, 0x82, 0xa0, 0xbc,
  0x68, 0xae, 0x91, 0xbe, 0xac, 0x6c, 0x37, 0xbe, 0x1e, 0x89, 0xd6, 0xbe,
  0x99, 0xa1, 0x94, 0x3d, 0x15, 0x53, 0xaf, 0x3d, 0x7b, 0xaa, 0x30, 0xbe,
  0xd7, 0x36, 0xa2, 0x3d, 0x70, 0x90, 0xea, 0xbd, 0x39, 0xb1, 0x42, 0xbe,
  0xcf, 0x48, 0x21, 0xbf, 0xa9, 0x05, 0xed, 0xbc, 0x42, 0x9b, 0xd5, 0x3d,
  0x05, 0x3c, 0xcf, 0x3d, 0xc1, 0x3a, 0x62, 0x3d, 0xb3, 0xba, 0x74, 0xba,
  0x50, 0x0b, 0x19, 0x3d, 0x15, 0x8c, 0xb3, 0x3d, 0x3c, 0xfa, 0x17, 0xbe,
  0x59, 0xe4, 0xf8, 0x3c, 0x20, 0x38, 0x8d, 0x3c, 0xe6, 0xd3, 0x57, 0xbd,
  0xea, 0x32, 0x96, 0xbc, 0x67, 0x4a, 0x32, 0x3d, 0x71, 0x33, 0xba, 0x3d,
  0xb5, 0xb7, 0x8e, 0xbd, 0xc6, 0x0a, 0x90, 0x3d, 0xf9, 0x9a, 0x57, 0x3d,
  0xd0, 0x77, 0xdc, 0x3d, 0x78, 0x7a, 0x62, 0xbc, 0x78, 0x1c, 0xba, 0xbd,
  0x89, 0xc2, 0x16, 0xbe, 0x4e, 0x7d, 0x95, 0xbd, 0x08, 0x73, 0x6a, 0xbd,
  0xe6, 0xfe, 0x82, 0xbd, 0xc4, 0x94, 0x7c, 0x3d, 0x74, 0x8d, 0xc1, 0x3d,
  0xe7, 0x95, 0xe2, 0x3d, 0x2f, 0xf0, 0xe7, 0xbd, 0xe0, 0xb4, 0xd6, 0x3d,
  0x5f, 0x57, 0xb3, 0xbd, 0x4d, 0x18, 0x0b, 0xbd, 0x71, 0x62, 0x1f, 0x3d,
  0x81, 0x12, 0xb3, 0x3d, 0x36, 0x1e, 0x4c, 0xbe, 0x45, 0xfb, 0x3b, 0xbe,
  0x1d, 0x7d, 0x7b, 0x3d, 0x0e, 0x8c, 0xe6, 0xbd, 0x94, 0x9a, 0x36, 0x3d,
  0x17, 0x91, 0x86, 0x3d, 0x48, 0x2a, 0x26, 0xbe, 0x0d, 0x19, 0x53, 0x3d,
  0x81, 0x01, 0x59, 0xbd, 0x66, 0xbc, 0x5f, 0xbd, 0xcf, 0x12, 0xab, 0x3d,
  0x53, 0x24, 0x25, 0xbe, 0x80, 0x5b, 0x73, 0xbd, 0x01, 0x2f, 0x44, 0x3d,
  0x65, 0xd0, 0xe9, 0xbd, 0xbf, 0xee, 0xd3, 0x3d, 0xd8, 0x2b, 0xba, 0xbd,
  0xdd, 0xcd, 0x81, 0x3d, 0x6b, 0x1f, 0x8e, 0xbc, 0x7a, 0x7e, 0x7e, 0x3d,
  0xee, 0x7b, 0x35, 0xbb, 0x08, 0x18, 0x0e, 0x3e, 0x2c, 0xc4, 0x1e, 0x3e,
  0x66, 0xaf, 0xf0, 0x3d, 0x32, 0x2c, 0xaa, 0xbc, 0xaf, 0x28, 0x66, 0x3d,
  0x8d, 0xc4, 0x0a, 0xbe, 0x73, 0xa9, 0x13, 0x3d, 0x2f, 0xa5, 0x9a, 0x3c,
  0xd7, 0x62, 0xb1, 0xbd, 0x59, 0xf8, 0x3c, 0xbe, 0xd5, 0xae, 0x08, 0xbe,
  0x4c, 0x47, 0x10, 0x3d, 0x85, 0x7e, 0xd3, 0xbd, 0x8e, 0x7a, 0xd2, 0x3d,
  0x98, 0xce, 0xf0, 0x3d, 0x77, 0xd1, 0xd2, 0xbb, 0x92, 0x49, 0x7d, 0x3d,
  0x90, 0xc6, 0xae, 0x3d, 0x26, 0xa1, 0x1e, 0xbe, 0x88, 0x76, 0x16, 0xbe,
  0xba, 0xc5, 0xda, 0xbd, 0x3d, 0xbe, 0xa6, 0x3d, 0x16, 0x39, 0xf8, 0xbd,
  0xcf, 0xf5, 0xd5, 0x3d, 0xc1, 0x30, 0xd4, 0x3d, 0xce, 0xa4, 0x33, 0xbd,
  0x79, 0x6e, 0xb3, 0xbd, 0x24, 0xbd, 0x1a, 0xbe, 0x43, 0xa0, 0xab, 0x3d,
  0x5a, 0x38, 0xd0, 0xbd, 0x1d, 0x90, 0xca, 0xbd, 0x5e, 0x46, 0xe5, 0x3d,
  0x4e, 0xc5, 0x28, 0xbe, 0xb0, 0x7d, 0xb9, 0xbd, 0xce, 0x15, 0x31, 0xbe,
  0x2e, 0xde, 0xe4, 0x3d, 0x04, 0xc8, 0x11, 0x3e, 0x9b, 0x5f, 0xe5, 0xbd,
  0x8a, 0x81, 0xb3, 0x3b, 0x03, 0xfc, 0x98, 0xbd, 0x18, 0xd2, 0x02, 0x3d,
  0x82, 0xd8, 0x7e, 0xbd, 0x0a, 0xc8, 0xd8, 0xbc, 0x3d, 0x09, 0x4c, 0x3d,
  0x60, 0x9c, 0x27, 0xbd, 0x37, 0xd7, 0x54, 0xbd, 0x9b, 0xe6, 0xc5, 0xbc,
  0xd5, 0x75, 0xd8, 0xbd, 0x64, 0x99, 0x84, 0x3d, 0x6a, 0x13, 0x09, 0xbe,
  0x8e, 0xd6, 0xc0, 0xbd, 0x0e, 0x90, 0x7d, 0xbd, 0x6a, 0xd1, 0x0a, 0x3e,
  0x2c, 0xff, 0x09, 0xbe, 0x28, 0x7f, 0x1d, 0xbe, 0x52, 0x36, 0xa1, 0xbd,
  0x8e, 0x8c, 0xdb, 0xbd, 0x7c, 0x6f, 0xb0, 0x3c, 0x96, 0xc5, 0x01, 0x3e,
  0x16, 0x87, 0x04, 0x3e, 0xc9, 0x46, 0x15, 0xbe, 0xd3, 0x07, 0x17, 0xbe,
  0xa8, 0x5a, 0xe6, 0x3d, 0xe8, 0x94, 0xdc, 0x3d, 0xa5, 0x01, 0x21, 0xbc,
  0xb1, 0x7f, 0xc0, 0x3d, 0x6d, 0x82, 0x96, 0x3d, 0x47, 0x3c, 0x06, 0xbe,
  0xd3, 0x50, 0x8a, 0xbd, 0x80, 0x8a, 0xb1, 0x3d, 0x5d, 0x0f, 0x55, 0xbd,
  0x14, 0x72, 0x86, 0xbc, 0x85, 0xa6, 0x6d, 0xbd, 0xd6, 0x42, 0x1d, 0xbe,
  0x13, 0xa5, 0x43, 0xbd, 0x83, 0x5a, 0xfd, 0x3c, 0x3a, 0xcf, 0x4e, 0xbd,
  0xb9, 0x5c, 0x00, 0xbe, 0x9c, 0x75, 0xf5, 0x3d, 0x11, 0x06, 0xe9, 0x3d,
  0x12, 0xd9, 0xe5, 0x3d, 0x41, 0x17, 0x45, 0xbd, 0x18, 0xae, 0x9f, 0x3d,
  0xf3, 0xa9, 0x3d, 0xbd, 0x23, 0xe7, 0xbb, 0x3d, 0xf5, 0xee, 0x0b, 0xbe,
  0x77, 0xd6, 0x29, 0xbe, 0x46, 0xb6, 0xaa, 0xbd, 0x1f, 0xab, 0xaf, 0x3d,
  0xff, 0x25, 0x8a, 0x3d, 0x8f, 0x57, 0x0e, 0x3e, 0x88, 0x3a, 0x8b, 0x3d,
  0x35, 0x0b, 0x3d, 0x3d, 0xb2, 0x2b, 0x1c, 0xbd, 0xae, 0x92, 0x91, 0xbc,
  0x37, 0x02, 0x3a, 0xbe, 0x34, 0x04, 0xc4, 0xbd, 0x2b, 0x9a, 0x90, 0xbd,
  0x0a, 0xb7, 0xfa, 0xbd, 0x76, 0xfe, 0xeb, 0xbd, 0xe0, 0x0e, 0x99, 0xbd,
  0x1d, 0xc6, 0xf0, 0xbd, 0xd2, 0x90, 0xac, 0xbb, 0x6d, 0xc3, 0x22, 0xbe,
  0xd4, 0x2e, 0x66, 0xbd, 0xe1, 0x21, 0x12, 0xbd, 0x7a, 0x5f, 0x45, 0xbc,
  0x84, 0xb5, 0x8d, 0xbd, 0xc1, 0xd1, 0x37, 0x3e, 0x2e, 0x21, 0xe1, 0x3d,
  0xd5, 0x47, 0x21, 0xbe, 0xac, 0xe3, 0x43, 0xbe, 0xc9, 0x93, 0xf7, 0xbc,
  0x62, 0x64, 0x07, 0xbe, 0xc8, 0xa0, 0x81, 0x3d, 0x44, 0xaa, 0x1f, 0x3d,
  0xdc, 0xbf, 0x27, 0xbd, 0x00, 0xd2, 0x71, 0x3d, 0xb0, 0x99, 0x53, 0xbd,
  0x11, 0x3a, 0xe6, 0xbd, 0x39, 0xdf, 0x9e, 0xbb, 0xc2, 0xcd, 0xdb, 0xbd,
  0xe4, 0xb3, 0x00, 0x3e, 0x7d, 0xd2, 0xfb, 0x3d, 0xe6, 0x4c, 0x21, 0xbe,
  0x67, 0xd4, 0xb6, 0xbc, 0x13, 0xbc, 0xbf, 0xbc, 0x8b, 0xc6, 0x14, 0xbe,
  0x47, 0xb0, 0xc5, 0xbd, 0x8d, 0x64, 0xa6, 0x3d, 0x69, 0xe1, 0xf8, 0x3d,
  0x6d, 0x77, 0x1c, 0xbe, 0x9a, 0x1e, 0xeb, 0xbd, 0xcb, 0xa8, 0xdd, 0xbd,
  0x40, 0x4c, 0xa7, 0xbd, 0x07, 0x51, 0x13, 0xbe, 0x5c, 0xd6, 0x33, 0xbe,
  0x7c, 0xb2, 0xea, 0xbd, 0x0d, 0x38, 0x50, 0xbd, 0x71, 0x31, 0xbf, 0x3c,
  0xdf, 0xa0, 0xd6, 0xbd, 0xab, 0x0f, 0xb6, 0xba, 0xc9, 0x9b, 0x06, 0xbe,
  0x17, 0xb4, 0x09, 0xbb, 0x71, 0x90, 0x1c, 0xbe, 0xc4, 0xa6, 0xa4, 0x3d,
  0x56, 0x50, 0xbf, 0x3d, 0x2b, 0xd6, 0xe5, 0x3d, 0xc7, 0x7a, 0xeb, 0x3d,
  0x7e, 0xa0, 0xd5, 0x3d, 0x39, 0x2b, 0x88, 0x3d, 0x29, 0x96, 0x8a, 0x3c,
  0x31, 0x56, 0x0b, 0x3e, 0xfc, 0x17, 0xd7, 0xbd, 0xb5, 0xc7, 0xfc, 0x3d,
  0xa7, 0x8e, 0x5c, 0xbd, 0x9d, 0x1f, 0x30, 0xbe, 0xed, 0x45, 0xe5, 0x3c,
  0x3e, 0x1b, 0x53, 0xbd, 0xfe, 0x92, 0xdf, 0xbd, 0xc4, 0x12, 0x18, 0xbe,
  0x3e, 0xf9, 0xd8, 0xbc, 0x62, 0x53, 0x92, 0x3d, 0xc3, 0xcc, 0x4c, 0xbd,
  0x61, 0xad, 0x13, 0x3e, 0x9e, 0x13, 0xb0, 0xbd, 0xee, 0xd0, 0x8c, 0xbc,
  0xce, 0xf5, 0xfa, 0xba, 0x76, 0xc1, 0xf5, 0x3d, 0xde, 0xff, 0x22, 0x3d,
  0xe4, 0x41, 0xd1, 0xbd, 0x54, 0x68, 0x9c, 0xbd, 0xb1, 0xbc, 0x01, 0xbe,
  0x8e, 0xe0, 0xd3, 0xbd, 0x0f, 0xa9, 0x20, 0xbe, 0xff, 0xaa, 0x96, 0x3d,
  0x46, 0x4d, 0xbc, 0xbd, 0xd0, 0xaa, 0xf6, 0x3c, 0xf4, 0x34, 0x82, 0xbd,
  0x16, 0x7f, 0x50, 0xbd, 0x53, 0x85, 0x1a, 0xbe, 0x12, 0xa5, 0x28, 0xbe,
  0xb8, 0xa2, 0x30, 0xbe, 0x23, 0x60, 0xbb, 0xbb, 0xa3, 0xf5, 0x1d, 0x3c,
  0x1e, 0x52, 0x2f, 0xbe, 0xce, 0x67, 0x06, 0xbd, 0x62, 0x98, 0xed, 0x3c,
  0x66, 0x3e, 0xd2, 0x3b, 0xf9, 0x21, 0xf1, 0x3d, 0x08, 0xfc, 0xaa, 0xbd,
  0xce, 0x0d, 0xe3, 0x3d, 0xcf, 0x27, 0x96, 0xbc, 0x16, 0x63, 0x47, 0x3c,
  0x6f, 0xf1, 0x82, 0xbd, 0xd2, 0x77, 0x20, 0xbc, 0xfb, 0x48, 0xce, 0xbb,
