unsigned char model_quantized_tflite[] = {
  0x20, 0x00, 0x00, 0x00, 0x54, 0x46, 0x4c, 0x33, 0x00, 0x00, 0x00, 0x00,
  0x00, 0x00, 0x12, 0x00, 0x1c, 0x00, 0x04, 0x00, 0x08, 0x00, 0x0c, 0x00,
  0x10, 0x00, 0x14, 0x00, 0x00, 0x00, 0x18, 0x00, 0x12, 0x00, 0x00, 0x00,
  0x03, 0x00, 0x00, 0x00, 0xc4, 0x26, 0x00, 0x00, 0x68, 0x1c, 0x00, 0x00,
  0x50, 0x1c, 0x00, 0x00, 0x3c, 0x00, 0x00, 0x00, 0x04, 0x00, 0x00, 0x00,
  0x01, 0x00, 0x00, 0x00, 0x0c, 0x00, 0x00, 0x00, 0x08, 0x00, 0x0c, 0x00,
  0x04, 0x00, 0x08, 0x00, 0x08, 0x00, 0x00, 0x00, 0x08, 0x00, 0x00, 0x00,
  0x13, 0x00, 0x00, 0x00, 0x13, 0x00, 0x00, 0x00, 0x6d, 0x69, 0x6e, 0x5f,
  0x72, 0x75, 0x6e, 0x74, 0x69, 0x6d, 0x65, 0x5f, 0x76, 0x65, 0x72, 0x73,
  0x69, 0x6f, 0x6e, 0x00, 0x14, 0x00, 0x00, 0x00, 0x08, 0x1c, 0x00, 0x00,
  0xf4, 0x1b, 0x00, 0x00, 0xd8, 0x1b, 0x00, 0x00, 0xb4, 0x1b, 0x00, 0x00,
  0x60, 0x1b, 0x00, 0x00, 0x0c, 0x1b, 0x00, 0x00, 0xd8, 0x1a, 0x00, 0x00,
  0xc4, 0x0c, 0x00, 0x00, 0xf0, 0x0b, 0x00, 0x00, 0xdc, 0x08, 0x00, 0x00,
  0xc8, 0x00, 0x00, 0x00, 0xbc, 0x00, 0x00, 0x00, 0xa8, 0x00, 0x00, 0x00,
  0x94, 0x00, 0x00, 0x00, 0x80, 0x00, 0x00, 0x00, 0x6c, 0x00, 0x00, 0x00,
  0x58, 0x00, 0x00, 0x00, 0x44, 0x00, 0x00, 0x00, 0x30, 0x00, 0x00, 0x00,
  0x04, 0x00, 0x00, 0x00, 0xb6, 0xe3, 0xff, 0xff, 0x04, 0x00, 0x00, 0x00,
  0x10, 0x00, 0x00, 0x00, 0x31, 0x2e, 0x35, 0x2e, 0x30, 0x00, 0x00, 0x00,
  0x00, 0x00, 0x00, 0x00, 0x00, 0x00, 0x00, 0x00, 0x00, 0x00, 0x00, 0x00,
  0x00, 0x00, 0x00, 0x00, 0x00, 0x00, 0x00, 0x00, 0x30, 0xda, 0xff, 0xff,
  0x00, 0x00, 0x00, 0x00, 0x00, 0x00, 0x00, 0x00, 0x00, 0x00, 0x00, 0x00,
  0x40, 0xda, 0xff, 0xff, 0x00, 0x00, 0x00, 0x00, 0x00, 0x00, 0x00, 0x00,
  0x00, 0x00, 0x00, 0x00, 0x50, 0xda, 0xff, 0xff, 0x00, 0x00, 0x00, 0x00,
  0x00, 0x00, 0x00, 0x00, 0x00, 0x00, 0x00, 0x00, 0x60, 0xda, 0xff, 0xff,
  0x00, 0x00, 0x00, 0x00, 0x00, 0x00, 0x00, 0x00, 0x00, 0x00, 0x00, 0x00,
  0x70, 0xda, 0xff, 0xff, 0x00, 0x00, 0x00, 0x00, 0x00, 0x00, 0x00, 0x00,
  0x00, 0x00, 0x00, 0x00, 0x80, 0xda, 0xff, 0xff, 0x00, 0x00, 0x00, 0x00,
  0x00, 0x00, 0x00, 0x00, 0x00, 0x00, 0x00, 0x00, 0x90, 0xda, 0xff, 0xff,
  0x00, 0x00, 0x00, 0x00, 0x00, 0x00, 0x00, 0x00, 0x00, 0x00, 0x00, 0x00,
  0xa0, 0xda, 0xff, 0xff, 0x00, 0x00, 0x00, 0x00, 0x56, 0xe4, 0xff, 0xff,
  0x04, 0x00, 0x00, 0x00, 0x00, 0x08, 0x00, 0x00, 0x40, 0xc8, 0xa2, 0xbe,
  0xcb, 0x2c, 0xce, 0xbe, 0x98, 0xbd, 0xcf, 0xbd, 0x62, 0xac, 0x35, 0xbe,
  0xa9, 0x29, 0xe4, 0xbe, 0x89, 0xf1, 0xd1, 0x3e, 0xfe, 0x34, 0xc1, 0xbe,
  0x5c, 0x8d, 0xe0, 0x3c, 0xf5, 0xca, 0xe4, 0x3c, 0xf7, 0x9c, 0x45, 0xbe,
  0x16, 0xf8, 0xd0, 0xbd, 0x89, 0xb7, 0x91, 0xbb, 0xbc, 0x16, 0x8a, 0xbe,
  0x50, 0x03, 0xcf, 0x3e, 0xc1, 0x0b, 0x7d, 0xbe, 0xce, 0x25, 0x87, 0xbe,
  0xda, 0xf0, 0x44, 0xbe, 0xaa, 0xe2, 0x8f, 0x3d, 0x5f, 0xff, 0x5d, 0x3e,
  0x50, 0xc0, 0xa7, 0x3d, 0x56, 0xee, 0x91, 0x3d, 0x67, 0xab, 0x7c, 0xbe,
  0x9a, 0x22, 0x14, 0xbe, 0x16, 0x8f, 0x45, 0x3d, 0xa8, 0x7b, 0x72, 0xbe,
  0x4e, 0x45, 0x03, 0x3f, 0x53, 0x95, 0xfd, 0xbe, 0xee, 0x0c, 0xda, 0xb9,
  0x9a, 0x46, 0x02, 0x3e, 0xe0, 0x0a, 0x54, 0x3e, 0x2b, 0xe4, 0x0a, 0xbe,
  0x79, 0x7d, 0x18, 0x3d, 0xee, 0xa6, 0xb2, 0xbd, 0x6f, 0xab, 0x9a, 0xbc,
  0x70, 0xe7, 0xf6, 0x3d, 0x4b, 0x41, 0x54, 0x3e, 0xda, 0x3b, 0x21, 0xbe,
  0xa1, 0xb4, 0x5c, 0x3d, 0x47, 0xad, 0x96, 0x3e, 0xdc, 0xd3, 0x4c, 0xbe,
  0xad, 0xf5, 0xb0, 0x3d, 0xdf, 0xd0, 0x4f, 0xbe, 0x53, 0xc5, 0x3a, 0x3e,
  0x59, 0xf3, 0x76, 0xbe, 0xc3, 0x22, 0x0a, 0x3e, 0xd0, 0x0f, 0xc9, 0xbb,
  0x5f, 0x3f, 0xd5, 0x3e, 0x0a, 0xd0, 0x6c, 0xbe, 0xef, 0x8f, 0xd8, 0x3d,
  0x48, 0x5e, 0x17, 0xbf, 0x18, 0x25, 0x27, 0xbd, 0xb8, 0x7f, 0xbf, 0x3e,
  0xf1, 0xc6, 0xbd, 0x3e, 0x69, 0xf7, 0x4a, 0xbd, 0xab, 0x93, 0xbc, 0x3e,
  0x6d, 0x30, 0x57, 0xbe, 0x7f, 0xc3, 0x54, 0x3e, 0xd8, 0x3b, 0x11, 0xbf,
  0x29, 0xf6, 0xdf, 0xbd, 0x37, 0xea, 0x9d, 0x3e, 0x6b, 0x6b, 0x03, 0x3f,
  0x5e, 0xcf, 0x4a, 0xbe, 0x22, 0xae, 0x86, 0x3e, 0x1c, 0xf1, 0x1e, 0xbe,
  0xaa, 0xb3, 0xe1, 0x3d, 0x88, 0x20, 0x67, 0x3e, 0xac, 0x28, 0x1f, 0x3e,
  0xb4, 0x92, 0xc0, 0x3d, 0x93, 0x58, 0xae, 0xbd, 0x0f, 0x08, 0xef, 0x3e,
  0x0e, 0xfb, 0x99, 0xbe, 0x1b, 0xaf, 0xcc, 0xbd, 0x23, 0xdb, 0x0e, 0x3c,
  0x55, 0xe6, 0xb9, 0xbe, 0xcf, 0x0c, 0x85, 0x3e, 0xf2, 0x9d, 0x68, 0x3d,
  0x50, 0xdf, 0xdd, 0xbd, 0xd0, 0x2c, 0xa1, 0x3e, 0x5c, 0x33, 0x44, 0xbe,
  0x3d, 0xb3, 0x96, 0x3e, 0xf9, 0xe2, 0x9d, 0x3e, 0x0a, 0x5c, 0x59, 0x3e,
  0xda, 0x61, 0x0b, 0xbe, 0x6d, 0x9e, 0xa1, 0xbd, 0x5d, 0xa8, 0x06, 0xbe,
  0xfa, 0xa0, 0xd8, 0xbc, 0x03, 0x9f, 0x85, 0xbd, 0x9a, 0x65, 0xfb, 0x3e,
  0xaf, 0xbe, 0x23, 0x3e, 0x12, 0xf3, 0xd2, 0x3e, 0x93, 0x14, 0x00, 0xbb,
  0xa5, 0xcb, 0x99, 0x3d, 0xfd, 0x44, 0xdd, 0xbd, 0x9b, 0x2a, 0x3e, 0x3e,
  0x5c, 0x7b, 0x08, 0xbe, 0xe4, 0x76, 0x9c, 0xbd, 0x2e, 0x40, 0x92, 0x3e,
  0x44, 0xe0, 0x13, 0x3f, 0x07, 0xbc, 0x1a, 0xbe, 0xc1, 0xc5, 0x6c, 0xbe,
  0x15, 0x8f, 0x7a, 0xbd, 0x75, 0xa8, 0xf4, 0xbd, 0x81, 0x5e, 0xa2, 0x3d,
  0x03, 0x4d, 0x73, 0x3e, 0xe1, 0xed, 0x6a, 0x3d, 0xd7, 0xd9, 0x2a, 0x3e,
  0x5f, 0xaa, 0xfe, 0x3d, 0x3c, 0x5f, 0x6c, 0xbe, 0xee, 0x7b, 0x1c, 0xbe,
  0x31, 0x03, 0x12, 0x3e, 0xca, 0x0e, 0x16, 0x3e, 0x57, 0xe3, 0x5a, 0x3e,
  0xea, 0x5e, 0x18, 0x3e, 0xde, 0xf5, 0xc0, 0x3c, 0x93, 0xee, 0x2e, 0x3e,
  0x2c, 0x16, 0xc1, 0xbd, 0xb7, 0xc6, 0x27, 0xbe, 0xbd, 0x2a, 0xe8, 0x3d,
  0x8a, 0x86, 0x92, 0x3e, 0xeb, 0x9f, 0x04, 0x3f, 0xc3, 0x26, 0x6d, 0x3e,
  0x99, 0x56, 0x5d, 0xbd, 0xff, 0x1e, 0x1a, 0x3d, 0xd5, 0xcd, 0xb2, 0xbd,
  0x20, 0xae, 0x95, 0xbc, 0x6b, 0x46, 0xf0, 0x3d, 0x33, 0xbe, 0xb8, 0xbc,
  0xc6, 0xa7, 0x28, 0x3f, 0xf9, 0xdf, 0xd6, 0x3e, 0xf5, 0x00, 0x99, 0xbe,
  0x53, 0x80, 0x02, 0xbe, 0x3d, 0x7a, 0x03, 0x3e, 0xd4, 0xbc, 0xbe, 0x3e,
  0x44, 0xe1, 0x3b, 0xbe, 0x5d, 0x1d, 0x8c, 0x3d, 0x8c, 0x35, 0x83, 0xbe,
  0x59, 0x8a, 0x01, 0x3f, 0x3c, 0xbc, 0x05, 0xbf, 0xcf, 0x3d, 0xa4, 0xbe,
  0xd8, 0x4e, 0x90, 0x3e, 0xa0, 0x7c, 0xd2, 0xbd, 0x18, 0xcc, 0x1f, 0xbe,
  0x32, 0x7e, 0x17, 0x3f, 0x99, 0x1f, 0x74, 0xbe, 0x42, 0xaa, 0x48, 0x3e,
  0xc5, 0xa9, 0x08, 0xbf, 0x38, 0xea, 0x75, 0xbe, 0x2e, 0x9a, 0xe6, 0x3d,
  0xe3, 0x70, 0x28, 0x3e, 0x21, 0xbb, 0xce, 0xbe, 0x3e, 0x35, 0x01, 0x3f,
  0x6e, 0x1e, 0xc4, 0x3d, 0xa8, 0x3f, 0xb5, 0x3e, 0x70, 0x86, 0xf1, 0xbe,
  0x73, 0xdc, 0x2a, 0xbe, 0xcf, 0xb3, 0x35, 0xbc, 0x60, 0xd3, 0xf2, 0x3e,
  0x5f, 0xe2, 0x84, 0xbe, 0xef, 0x23, 0x9e, 0x3e, 0x96, 0xb1, 0x5d, 0xbd,
  0x04, 0x46, 0x8b, 0x3d, 0xad, 0x31, 0xb4, 0xbd, 0x02, 0xd3, 0x33, 0x3f,
  0x56, 0xb1, 0x73, 0xbe, 0x17, 0xe1, 0xf3, 0xbe, 0xe4, 0xc8, 0xd1, 0xbd,
  0x9a, 0x96, 0x5e, 0xbb, 0xd0, 0xdf, 0x25, 0x3e, 0x8b, 0x7a, 0xc3, 0xbd,
  0x3d, 0x18, 0xb1, 0xbe, 0xba, 0x68, 0x23, 0x3e, 0xd9, 0xb8, 0x76, 0xbe,
  0x82, 0x56, 0xfd, 0xbe, 0x76, 0x7e, 0xbd, 0x3e, 0xfe, 0x7a, 0x8c, 0xbc,
  0xba, 0x47, 0x14, 0x3e, 0xdb, 0xfb, 0x55, 0x3d, 0x02, 0xeb, 0x9a, 0x3a,
  0x2c, 0xfc, 0x1f, 0x3d, 0xe6, 0xde, 0x53, 0xbe, 0x73, 0xcf, 0x14, 0xbf,
  0x5a, 0x1d, 0x02, 0x3f, 0x0c, 0x60, 0xa6, 0xbe, 0xf3, 0xe5, 0x25, 0xbc,
  0xe0, 0xaf, 0x97, 0xbe, 0x3a, 0x51, 0x71, 0xbe, 0xfe, 0x7a, 0x88, 0x3e,
  0x5a, 0x2d, 0xb8, 0xbe, 0x96, 0x3b, 0x1c, 0xbf, 0x00, 0xea, 0x3f, 0xbd,
  0x4f, 0x0a, 0xc9, 0xbe, 0xba, 0x4a, 0xc9, 0x3e, 0x9a, 0xb2, 0x40, 0x3f,
  0xd1, 0x6a, 0x50, 0x3d, 0x8e, 0x95, 0x42, 0xbf, 0x9a, 0x07, 0x9e, 0xbf,
  0xba, 0x34, 0x62, 0xbf, 0x21, 0xbd, 0x49, 0xbf, 0xe1, 0x0f, 0xcb, 0xbe,
  0x6d, 0xcc, 0x8a, 0x3e, 0xb7, 0xc1, 0xf4, 0x3e, 0x8c, 0x63, 0xbe, 0x3e,
  0xe2, 0xb1, 0xad, 0xbe, 0x1d, 0x3c, 0x82, 0xbf, 0xfd, 0xeb, 0xb4, 0xbe,
  0x8f, 0x56, 0x2c, 0xbf, 0x1e, 0xfe, 0x4e, 0xbd, 0x5e, 0x45, 0x24, 0xbe,
  0xe9, 0xfb, 0xba, 0x3e, 0x1c, 0xbe, 0xc0, 0x3e, 0x6d, 0x49, 0x83, 0x3d,
  0xdc, 0x04, 0xe1, 0xbe, 0xc0, 0x47, 0x15, 0xbe, 0x7c, 0x59, 0x1a, 0xbd,
  0x67, 0x0e, 0xa1, 0x3e, 0x97, 0xc5, 0xb3, 0x3e, 0x7c, 0x1d, 0x08, 0x3f,
  0x13, 0x2b, 0xec, 0x3e, 0x3f, 0xee, 0x80, 0x3d, 0x86, 0x13, 0x95, 0xbe,
  0x24, 0x78, 0x2f, 0xbe, 0xfe, 0xb3, 0x59, 0xbd, 0x65, 0xe1, 0x97, 0x3e,
  0x23, 0xec, 0x71, 0x3e, 0xac, 0xb3, 0x41, 0xbe, 0xf1, 0x63, 0x71, 0x3d,
  0x90, 0x62, 0xc9, 0x3e, 0xd4, 0x8f, 0x66, 0xbe, 0xcf, 0xc2, 0x28, 0xbe,
  0x4d, 0x13, 0xda, 0x3d, 0xff, 0xf6, 0x0a, 0x3e, 0x04, 0x01, 0x24, 0xbe,
  0x14, 0x60, 0x8b, 0x3d, 0x58, 0x50, 0x51, 0xbe, 0x3e, 0xeb, 0x0d, 0x3f,
  0xdf, 0x06, 0xf6, 0x3d, 0x46, 0xd3, 0x08, 0x3e, 0xb1, 0xe1, 0xad, 0xbd,
  0x2e, 0x34, 0x81, 0xbd, 0x3e, 0xbc, 0x09, 0xbe, 0x4d, 0x43, 0x0d, 0x3e,
  0x8e, 0x01, 0xad, 0xbe, 0x53, 0x40, 0xb7, 0x3e, 0xae, 0x2d, 0xb0, 0x3e,
  0xc0, 0xf1, 0xa1, 0xbc, 0x2e, 0xf4, 0xa7, 0x3e, 0x65, 0x4c, 0x3b, 0xbe,
  0xc1, 0x9d, 0xcc, 0xbd, 0xda, 0xed, 0xb0, 0x3e, 0xe5, 0x72, 0x12, 0xbf,
  0xbf, 0x43, 0x17, 0xbe, 0x92, 0xb8, 0x03, 0x3e, 0x12, 0xc2, 0x1e, 0x3e,
  0x19, 0x90, 0x76, 0x3e, 0x61, 0x05, 0x31, 0xbd, 0x6a, 0xba, 0x7d, 0xbe,
  0x1a, 0x57, 0x92, 0xbd, 0x76, 0xda, 0xf2, 0x3e, 0xd8, 0x30, 0x4f, 0xbd,
  0xac, 0xfc, 0xc1, 0xbe, 0xb9, 0x75, 0xc3, 0xbe, 0xab, 0xd8, 0xdf, 0xbe,
  0xde, 0xfe, 0x45, 0xbe, 0xe6, 0xed, 0xe2, 0x3e, 0x56, 0xb8, 0x09, 0xbe,
  0x7d, 0xb5, 0x44, 0x3e, 0x16, 0x12, 0x79, 0x3d, 0xab, 0x11, 0x89, 0xbe,
  0xe6, 0x1e, 0x06, 0xbe, 0x8e, 0xba, 0x45, 0xbc, 0xa2, 0x88, 0x36, 0xbb,
  0xdb, 0x30, 0x1e, 0x3e, 0x98, 0xe0, 0xb3, 0x3d, 0xba, 0x80, 0x62, 0x3d,
  0x5c, 0xdb, 0x86, 0xbc, 0xd1, 0x51, 0x4c, 0xbd, 0xa0, 0x76, 0x9c, 0x3d,
  0x40, 0x69, 0x87, 0x3e, 0x92, 0xf5, 0x8c, 0xbd, 0xad, 0xfb, 0xcf, 0x3e,
  0x25, 0x34, 0xd2, 0x3e, 0xd7, 0xfe, 0xcc, 0x3c, 0x93, 0xfa, 0x01, 0x3f,
  0x4c, 0x17, 0x1f, 0x3e, 0x7a, 0x6d, 0xbd, 0xbc, 0xcf, 0x76, 0xb8, 0x3c,
  0x75, 0xa5, 0xa4, 0x3d, 0x41, 0x02, 0xcb, 0x3e, 0x80, 0xed, 0xa6, 0xbe,
  0x1b, 0x46, 0x70, 0xbf, 0xeb, 0x94, 0xe5, 0x3d, 0x92, 0x46, 0xa8, 0x3d,
  0x45, 0x7f, 0x76, 0x3d, 0x8e, 0x0a, 0xdb, 0xbd, 0x37, 0x7d, 0x42, 0xbe,
  0xb2, 0xce, 0x13, 0xbf, 0xcc, 0xe6, 0x28, 0xbf, 0x45, 0x40, 0x0c, 0xbf,
  0x10, 0x60, 0x4b, 0xbe, 0x8e, 0xa6, 0x51, 0x3e, 0x4b, 0xa0, 0x9e, 0xbd,
  0x42, 0xdf, 0x77, 0x3e, 0x32, 0xae, 0x06, 0xbf, 0x5e, 0x55, 0x22, 0xbf,
  0x4d, 0x97, 0x94, 0xbe, 0xba, 0x1e, 0xca, 0xbe, 0x38, 0xa1, 0xba, 0x3e,
  0x7f, 0xf7, 0x07, 0x3e, 0xd0, 0x69, 0x22, 0x3b, 0x8b, 0x44, 0x19, 0x3f,
  0xf5, 0x3d, 0xd6, 0xbe, 0xc7, 0x13, 0x94, 0xbe, 0xba, 0xe0, 0xd8, 0xbe,
  0x9e, 0xb0, 0xc3, 0xbe, 0xaa, 0x86, 0xe5, 0x3e, 0xb0, 0x64, 0xc9, 0x3e,
  0x8c, 0xe3, 0x63, 0x3c, 0xd0, 0x95, 0x00, 0x3f, 0xf9, 0x96, 0x15, 0xbf,
  0x7f, 0x36, 0x3c, 0xbf, 0xb4, 0xba, 0x4a, 0x3e, 0x71, 0x93, 0xe4, 0x3e,
  0x8c, 0x56, 0xfd, 0x3e, 0x28, 0x09, 0x92, 0xbe, 0x06, 0xfa, 0x05, 0xbf,
  0x1c, 0x2a, 0xf0, 0x3e, 0x88, 0xaf, 0xbb, 0xbe, 0x9f, 0x46, 0x47, 0x3d,
  0x71, 0xef, 0xa6, 0x3e, 0x2a, 0x7a, 0x54, 0x3e, 0x76, 0xa0, 0xbb, 0x3c,
  0x07, 0xf2, 0x18, 0xbe, 0xa8, 0x1f, 0xdc, 0xbe, 0x23, 0x21, 0x8c, 0x3d,
  0xb1, 0x64, 0x1a, 0xbe, 0xbd, 0x5a, 0xb3, 0xbd, 0xe0, 0x5e, 0x69, 0xbd,
  0x84, 0x1b, 0x86, 0x3e, 0xc0, 0x83, 0xc6, 0x3d, 0x5d, 0xea, 0xe7, 0xbe,
  0x46, 0x9e, 0x40, 0xbf, 0x24, 0x36, 0x09, 0xbe, 0x47, 0xe5, 0x6e, 0xbf,
  0xa3, 0xb1, 0x12, 0x3e, 0x81, 0xf6, 0xca, 0xbd, 0x23, 0x08, 0xc5, 0x3e,
  0xbf, 0x07, 0x2a, 0xbe, 0xb0, 0x76, 0x11, 0xbf, 0xc8, 0xc5, 0x6c, 0xbf,
  0xc1, 0xa6, 0xd1, 0xbd, 0x47, 0x96, 0x3c, 0xbf, 0xa8, 0x6b, 0xfb, 0x3e,
  0xf1, 0xa7, 0x9e, 0xbd, 0x78, 0x27, 0xae, 0x3d, 0xf7, 0x3d, 0xa9, 0x3e,
  0xed, 0xb5, 0x7e, 0x3e, 0x6e, 0x9d, 0x18, 0x3c, 0x05, 0x94, 0x9d, 0x3c,
  0xbd, 0x23, 0xfe, 0xbc, 0x3e, 0x34, 0x1d, 0x3e, 0x09, 0x7f, 0xe4, 0x3d,
  0x32, 0x32, 0xa1, 0xbe, 0x47, 0x5d, 0x9d, 0x3e, 0x16, 0x5e, 0x85, 0x3e,
  0x86, 0xa1, 0x90, 0x3e, 0x20, 0x8f, 0xf1, 0xbd, 0x6f, 0x34, 0x88, 0x3e,
  0x1f, 0x50, 0x54, 0xbe, 0x25, 0x1a, 0x1f, 0x3e, 0xaf, 0x6b, 0xdb, 0xbe,
  0x9c, 0x57, 0xe6, 0x3b, 0xe8, 0x81, 0xa2, 0x3e, 0x13, 0x2d, 0x96, 0x3e,
  0xc8, 0xb0, 0x0f, 0x3e, 0xba, 0x40, 0xaf, 0x3e, 0xb8, 0x86, 0xaf, 0xbd,
  0x3f, 0x7e, 0x73, 0x3e, 0xc1, 0x4d, 0x07, 0xbf, 0x3b, 0xff, 0xce, 0xbe,
  0xef, 0x5a, 0x1c, 0x3e, 0xfe, 0x5e, 0x07, 0x3f, 0x06, 0x92, 0x2a, 0xbe,
  0x7f, 0x68, 0xbb, 0x3e, 0xac, 0x03, 0xb5, 0xbd, 0x38, 0xe6, 0xd7, 0xbd,
  0x10, 0x5f, 0x62, 0x3d, 0x93, 0xd5, 0xf9, 0x3e, 0xc2, 0x6b, 0x27, 0xbe,
  0xef, 0x0c, 0x51, 0xbe, 0x80, 0xf9, 0x99, 0x3e, 0x6e, 0x46, 0xa1, 0xbe,
  0x43, 0xef, 0xb0, 0x3e, 0x60, 0x60, 0x36, 0x3e, 0xe8, 0x47, 0x55, 0xbe,
  0x79, 0xac, 0xa4, 0x3e, 0xd8, 0xe6, 0x09, 0xbd, 0x22, 0xeb, 0x89, 0xbe,
  0xb6, 0x5a, 0xbf, 0x3e, 0x82, 0x55, 0x1d, 0xbe, 0x19, 0x18, 0x78, 0x3e,
  0x9d, 0xf3, 0x64, 0x3e, 0x42, 0x53, 0x34, 0xbe, 0xee, 0x42, 0xa4, 0xbb,
  0x34, 0x71, 0x8e, 0x3e, 0xa9, 0x3f, 0x9a, 0xbd, 0x4a, 0x71, 0x09, 0x3f,
  0x6a, 0x87, 0x41, 0xbe, 0xd5, 0xfd, 0x0d, 0x3e, 0x03, 0x76, 0x25, 0xbd,
  0x45, 0xe5, 0x1f, 0xbe, 0x3b, 0x43, 0xb1, 0x3e, 0x54, 0x8c, 0xf6, 0x3d,
  0x0a, 0xf3, 0x00, 0xbe, 0xcd, 0xf2, 0x14, 0x3f, 0x07, 0x9b, 0x1c, 0x3b,
  0x24, 0x8f, 0xb5, 0xbd, 0xc9, 0x0c, 0xa2, 0xbe, 0x44, 0x71, 0x8e, 0xbe,
  0x2c, 0x7c, 0x31, 0x3f, 0xc4, 0x12, 0x08, 0xbd, 0xcf, 0x1d, 0x35, 0xbe,
  0x4a, 0xe5, 0x08, 0x3f, 0xf6, 0x83, 0xb9, 0xbe, 0xe8, 0x53, 0xbd, 0xbd,
  0x73, 0x21, 0xd7, 0xbd, 0xa3, 0xb4, 0xa5, 0xbe, 0x0a, 0x36, 0xb1, 0x3e,
  0xc0, 0x34, 0x0b, 0xbd, 0x7d, 0x24, 0xb4, 0xbe, 0x1a, 0xf1, 0xb6, 0x3c,
  0x76, 0xf6, 0x63, 0xbe, 0x1c, 0xf7, 0x1f, 0xbd, 0x43, 0x15, 0x4c, 0xbe,
  0xd9, 0x95, 0xe7, 0xbd, 0x12, 0xe4, 0xdb, 0x3e, 0x55, 0xcd, 0xa5, 0xbd,
  0x7d, 0x13, 0x85, 0xbe, 0x55, 0x90, 0x2a, 0x3f, 0xa8, 0x0d, 0x80, 0xbe,
  0xf1, 0x5e, 0xdf, 0xbe, 0xf3, 0xc8, 0x84, 0xbe, 0xde, 0x05, 0xb1, 0xbd,
  0x83, 0x87, 0x39, 0xbc, 0x30, 0x11, 0x0d, 0xbe, 0xbd, 0x81, 0x38, 0xbe,
  0xe3, 0x87, 0x37, 0x3f, 0xfc, 0x49, 0x9a, 0xbe, 0x5b, 0x9f, 0x4b, 0xbe,
  0xfe, 0x05, 0x01, 0xbe, 0xbe, 0xf7, 0xf3, 0xbc, 0xcd, 0xf0, 0xb0, 0xbd,
  0xaf, 0xc8, 0xc8, 0x3d, 0x2b, 0x36, 0x03, 0xbe, 0xd4, 0xe0, 0x47, 0x3e,
  0x15, 0x50, 0xb8, 0x3d, 0xc3, 0x1f, 0x7f, 0xbe, 0x94, 0x5b, 0x27, 0xbe,
  0x72, 0xa9, 0xc5, 0x3c, 0xd6, 0xf7, 0x5b, 0x3e, 0x1b, 0x30, 0x9c, 0xbb,
  0x7a, 0xea, 0x8c, 0x3e, 0x69, 0xe1, 0xad, 0xbd, 0x61, 0xab, 0x09, 0xbe,
  0xe2, 0x65, 0x87, 0xbe, 0xbe, 0x79, 0x16, 0x3e, 0x9d, 0x1d, 0xd9, 0xbe,
  0x14, 0x25, 0xae, 0xbd, 0x92, 0x14, 0x85, 0xbd, 0x6d, 0x9d, 0x42, 0x3e,
  0xa3, 0x0d, 0x13, 0x3e, 0x54, 0x27, 0xe2, 0x3e, 0x2d, 0xf1, 0x86, 0xbe,
  0xec, 0xb7, 0x8c, 0xbe, 0x66, 0x26, 0x0b, 0xbf, 0x7e, 0x6f, 0xbb, 0xbd,
  0x95, 0xf6, 0x0d, 0x3f, 0x6b, 0xff, 0x89, 0x3e, 0xd3, 0x8a, 0x8e, 0xbd,
  0x46, 0x6e, 0xa0, 0x3e, 0xd4, 0xaf, 0xa1, 0xbe, 0xe3, 0x63, 0x2d, 0xbf,
  0xd5, 0x33, 0x8b, 0xbe, 0x83, 0x69, 0xed, 0xbe, 0x8a, 0xdb, 0xb7, 0x3d,
  0x19, 0x14, 0x0d, 0xbc, 0x99, 0x81, 0x99, 0xbe, 0xb6, 0x6d, 0xbe, 0xbb,
  0x60, 0x13, 0x39, 0xbf, 0x83, 0xed, 0x23, 0xbf, 0xf0, 0x40, 0x98, 0xbe,
  0x00, 0x71, 0x6a, 0xbe, 0xec, 0xb0, 0x96, 0x3e, 0x1f, 0xd7, 0x87, 0x3e,
  0xf9, 0xe6, 0xb8, 0x3d, 0x29, 0x9a, 0x5c, 0xbe, 0x37, 0xdc, 0x43, 0xbf,
  0xc5, 0x34, 0xfa, 0xbe, 0x95, 0xe2, 0xba, 0xbe, 0xeb, 0x30, 0x60, 0x3d,
  0x9a, 0x7a, 0x9e, 0x3e, 0x85, 0xaf, 0x94, 0x3e, 0xc9, 0x41, 0x3b, 0x3e,
  0xb5, 0x8a, 0x17, 0xbe, 0x95, 0x4a, 0x23, 0xbf, 0x56, 0x6e, 0xe4, 0xbe,
  0x61, 0x23, 0x94, 0xbe, 0x22, 0xc3, 0xdb, 0x3d, 0x82, 0xdf, 0xb0, 0x3e,
  0x14, 0xba, 0x8f, 0x3e, 0x30, 0x8a, 0xf9, 0xbd, 0x4d, 0xba, 0xfc, 0xbd,
  0x38, 0x43, 0xc1, 0xbe, 0x00, 0x00, 0x00, 0x00, 0x66, 0xec, 0xff, 0xff,
  0x04, 0x00, 0x00, 0x00, 0x00, 0x03, 0x00, 0x00, 0x20, 0xb0, 0x93, 0xbe,
  0x45, 0x6f, 0x2d, 0xbc, 0xc6, 0x2d, 0xd2, 0x3e, 0xee, 0xc2, 0xaa, 0xbe,
  0x72, 0x81, 0x0b, 0x3c, 0xef, 0x2d, 0x41, 0xbe, 0xcb, 0xf4, 0x1d, 0xbe,
  0x17, 0x77, 0x0c, 0x3e, 0xfd, 0x01, 0x8e, 0x3e, 0x2d, 0xb8, 0x89, 0xbe,
  0xf0, 0xbf, 0x4e, 0x3e, 0x4f, 0xc6, 0x35, 0xbc, 0xba, 0x3a, 0x55, 0xbe,
  0x22, 0x0b, 0xc9, 0xbd, 0x4f, 0xeb, 0x08, 0x3e, 0x3d, 0x48, 0xc4, 0xbe,
  0x46, 0xe2, 0xbf, 0x3e, 0xfe, 0xab, 0x09, 0x3f, 0xf6, 0x0e, 0x0e, 0xbe,
  0x51, 0xe2, 0x3c, 0x3d, 0x54, 0xfa, 0xc5, 0x3d, 0x65, 0x80, 0xc1, 0xbb,
  0xdb, 0xe1, 0x19, 0x3e, 0xd6, 0x69, 0x90, 0x3e, 0x2e, 0xb0, 0xd9, 0x3d,
  0x56, 0x0e, 0x08, 0xbe, 0xfc, 0x14, 0x6b, 0xbe, 0x48, 0xb9, 0x9b, 0xbc,
  0x71, 0xd6, 0x78, 0xbe, 0xca, 0x7b, 0x02, 0xbf, 0xe8, 0x70, 0x5c, 0xb9,
  0x9e, 0xf5, 0x69, 0xbe, 0xbe, 0x98, 0x11, 0xbe, 0x75, 0xdf, 0xae, 0x3c,
  0x6b, 0x8a, 0x25, 0xbe, 0xdb, 0x97, 0xdb, 0xbe, 0xff, 0xfd, 0x7e, 0xbe,
  0x82, 0xe2, 0x50, 0xbe, 0x49, 0xac, 0x16, 0xbe, 0x45, 0x3d, 0x14, 0xbe,
  0x3b, 0x87, 0x52, 0xbe, 0xdf, 0x2a, 0xc5, 0xbe, 0x4d, 0x56, 0x50, 0xbe,
  0xfe, 0x38, 0x29, 0xbe, 0x16, 0x77, 0x9d, 0xbe, 0x22, 0xeb, 0x3f, 0x3e,
  0x9a, 0x95, 0xea, 0xbd, 0xdb, 0xbf, 0x0d, 0xbf, 0xaf, 0xa5, 0xbb, 0x3e,
  0x83, 0x5e, 0x45, 0xbd, 0xa5, 0x6b, 0x27, 0xbe, 0xc1, 0x6e, 0x00, 0x3c,
  0xd8, 0xdf, 0xf2, 0xbd, 0x68, 0xe9, 0x43, 0x3e, 0x32, 0x82, 0xad, 0x3e,
  0x5c, 0x5e, 0x6b, 0xbd, 0x93, 0x0c, 0xda, 0xbd, 0xb1, 0x8e, 0x99, 0xbd,
  0x5a, 0x00, 0x04, 0xbe, 0xea, 0xf7, 0xb3, 0x3d, 0x9d, 0xd8, 0xd6, 0x3e,
  0xb0, 0xc1, 0xf2, 0xbd, 0x99, 0x0c, 0xc9, 0x3b, 0x7c, 0xfd, 0x86, 0x3e,
  0x1e, 0x6e, 0xa1, 0x3e, 0xef, 0x07, 0xf1, 0xbc, 0x91, 0xc8, 0xa6, 0x3e,
  0x0a, 0x3f, 0x94, 0x3c, 0x2b, 0x63, 0x89, 0xbd, 0xd3, 0x94, 0x31, 0x3e,
  0x74, 0x55, 0xe5, 0xbd, 0xe2, 0x0e, 0xf2, 0xbd, 0x46, 0xb8, 0x98, 0xbd,
  0xb1, 0xb2, 0x3a, 0xbc, 0x8d, 0x48, 0xab, 0xbb, 0xc9, 0x4c, 0xa1, 0x3e,
  0x92, 0x49, 0xf6, 0x3d, 0xb8, 0x00, 0x75, 0x3f, 0xab, 0x3e, 0x9a, 0xbe,
  0x42, 0xce, 0x15, 0xbe, 0xe7, 0x25, 0x40, 0xbe, 0x6f, 0x1e, 0x81, 0x3e,
  0xa2, 0xbf, 0xe6, 0x3d, 0x28, 0xf3, 0x58, 0x3f, 0xc7, 0x9b, 0x73, 0x3e,
  0xda, 0x36, 0x23, 0xbe, 0xca, 0x55, 0x12, 0xbe, 0x59, 0x7f, 0x62, 0x3e,
  0x76, 0x33, 0xf9, 0x3d, 0x9d, 0x76, 0x30, 0x3f, 0x7d, 0x9c, 0x40, 0xbe,
  0x40, 0x4d, 0xca, 0xbd, 0xe4, 0x37, 0x61, 0xbe, 0x9f, 0x5d, 0x99, 0x3e,
  0x07, 0x87, 0x00, 0xbe, 0xf1, 0x0b, 0xb5, 0x3e, 0xd4, 0x52, 0x86, 0xbe,
  0xd2, 0xd1, 0x1d, 0x3e, 0x2a, 0x6e, 0x12, 0xbd, 0x31, 0x5c, 0x2f, 0x3e,
  0xf3, 0x3a, 0x11, 0x3e, 0x5f, 0x3d, 0x57, 0x3f, 0x85, 0x85, 0x42, 0xbe,
  0x84, 0xd2, 0x4b, 0xbe, 0x85, 0x14, 0x11, 0xbe, 0x1c, 0xbd, 0x9f, 0x3d,
  0x5a, 0x1e, 0x97, 0xbd, 0x8c, 0xdd, 0x25, 0x3f, 0x35, 0x0b, 0x86, 0x3d,
  0xb4, 0x8d, 0x35, 0xbe, 0xa4, 0x3c, 0xb1, 0xbe, 0x84, 0x49, 0xde, 0x3d,
  0x97, 0xef, 0x0a, 0x3e, 0x56, 0x11, 0x2b, 0x3f, 0x8a, 0xf9, 0x15, 0xbe,
  0x3a, 0x32, 0x02, 0xbd, 0x21, 0x3d, 0xbf, 0xbe, 0xf4, 0xce, 0x08, 0x3e,
  0x4e, 0xd3, 0xe4, 0xbd, 0xeb, 0x3a, 0xd3, 0x3e, 0x6d, 0x81, 0x17, 0xbe,
  0x2e, 0x28, 0x10, 0xbe, 0x14, 0x84, 0x0f, 0x3e, 0x88, 0x09, 0x06, 0x3f,
  0x87, 0xc7, 0x98, 0xbd, 0xba, 0xc5, 0x8b, 0x3e, 0x3a, 0x66, 0xba, 0xb9,
  0xfd, 0x1c, 0x45, 0xbd, 0xde, 0xfe, 0x3d, 0x3e, 0x72, 0xdd, 0xd7, 0x3e,
  0xc3, 0x32, 0x33, 0xbe, 0x0b, 0x08, 0x41, 0x3e, 0x2e, 0xbe, 0xf4, 0x3e,
  0x23, 0x51, 0x4f, 0x3e, 0xd2, 0xe5, 0x91, 0x3e, 0x6f, 0x62, 0xae, 0x3e,
  0x44, 0x3f, 0x19, 0xbf, 0x75, 0xd4, 0x8b, 0x3e, 0x29, 0x94, 0x5f, 0x3e,
  0x35, 0xd6, 0xf4, 0x3d, 0x1b, 0xd1, 0x2d, 0x3e, 0x42, 0xa0, 0x11, 0x3e,
  0xf3, 0x99, 0xb1, 0xbe, 0x6f, 0x22, 0x06, 0x3e, 0x9f, 0x9c, 0x96, 0xbe,
  0x49, 0x36, 0x3f, 0xbd, 0xe7, 0x96, 0xcc, 0x3e, 0x62, 0x64, 0xc1, 0xbe,
  0xc1, 0xc9, 0x84, 0x3e, 0x4d, 0x7e, 0xd1, 0xbd, 0xb2, 0x52, 0x23, 0xbe,
  0x2b, 0xa2, 0x81, 0xbc, 0x1f, 0x19, 0x9b, 0x3e, 0x84, 0x7a, 0x54, 0xbe,
  0xa6, 0xb5, 0x8b, 0x3e, 0xf0, 0x32, 0x85, 0x3d, 0x90, 0x43, 0x5b, 0xbe,
  0xcc, 0x8f, 0x91, 0xbd, 0x5d, 0xe4, 0x4d, 0xbe, 0xff, 0xf0, 0xa7, 0xbe,
  0xda, 0x2f, 0xf8, 0x3d, 0xb6, 0x00, 0x05, 0x3e, 0xb0, 0x26, 0x71, 0xbd,
  0xf0, 0x9b, 0xfc, 0xbd, 0xf3, 0x5e, 0x31, 0xbe, 0xfe, 0x38, 0x3f, 0xbe,
  0xd6, 0x57, 0x98, 0x3e, 0x24, 0x8a, 0x1c, 0x3e, 0x5d, 0x2c, 0x55, 0xbe,
  0xdc, 0x0c, 0x12, 0xbe, 0x97, 0x88, 0x4d, 0x3e, 0x01, 0x96, 0xb8, 0xbe,
  0xcf, 0x6b, 0xea, 0xbe, 0x69, 0x65, 0xcc, 0x3d, 0xfc, 0x43, 0x8f, 0xbe,
  0x6d, 0x49, 0x59, 0xbd, 0x6c, 0xcd, 0x3a, 0x3e, 0xb4, 0x35, 0xf2, 0xbe,
  0x94, 0x73, 0x4a, 0xbd, 0x41, 0xb4, 0xbe, 0x3e, 0x8c, 0xab, 0x40, 0xbe,
  0x2f, 0x1c, 0x77, 0xbd, 0x2f, 0xc5, 0x80, 0x3e, 0xf8, 0xaf, 0xb8, 0xbe,
  0xc7, 0x93, 0xb0, 0xbd, 0x3d, 0xa0, 0xe3, 0x3e, 0x31, 0x62, 0x38, 0xbe,
  0x8b, 0xca, 0x87, 0x3d, 0x3a, 0x2b, 0x72, 0x3e, 0x17, 0x24, 0x89, 0xbe,
  0x6c, 0xf6, 0x86, 0x3e, 0xbb, 0x89, 0x4a, 0x3e, 0x00, 0x00, 0x00, 0x00,
  0x76, 0xef, 0xff, 0xff, 0x04, 0x00, 0x00, 0x00, 0xc0, 0x00, 0x00, 0x00,
  0xbc, 0xb0, 0x85, 0x3f, 0xac, 0x01, 0xdd, 0xbe, 0x84, 0xcc, 0x89, 0xbf,
  0xf6, 0x6d, 0x3c, 0xbf, 0x87, 0xf7, 0x2c, 0xbf, 0x5a, 0x5e, 0x19, 0xbe,
  0x36, 0x20, 0xfa, 0x3c, 0xc3, 0x75, 0x15, 0x3f, 0xd8, 0x6c, 0x09, 0xbe,
  0x66, 0x81, 0xef, 0x3e, 0x1c, 0xb8, 0x5c, 0x3d, 0xee, 0x6d, 0xad, 0x3e,
  0x96, 0x91, 0x7e, 0xbf, 0xd4, 0xc5, 0x70, 0x3f, 0xd2, 0x7a, 0xb6, 0x3d,
  0x4f, 0xa1, 0x3f, 0x3f, 0xad, 0xe1, 0x0a, 0xbf, 0xfb, 0x44, 0x5b, 0xbf,
  0xe4, 0x97, 0x5c, 0xbf, 0x0c, 0x63, 0x3c, 0x3f, 0xc7, 0x7d, 0x67, 0x3f,
  0xfa, 0x1f, 0xba, 0xbf, 0x53, 0x1a, 0xf0, 0x3e, 0x75, 0xb1, 0x93, 0xbe,
  0x02, 0xb4, 0x89, 0xbf, 0xae, 0x48, 0x03, 0x3f, 0x6a, 0xad, 0x96, 0xbf,
  0x08, 0x81, 0x89, 0xbf, 0x30, 0xd5, 0xc4, 0x3e, 0x00, 0x3f, 0xfd, 0xbe,
  0xc9, 0xe3, 0x81, 0x3e, 0x38, 0xfa, 0x05, 0xbf, 0x0f, 0x98, 0x3c, 0xbf,
  0x15, 0x1d, 0x5f, 0x3f, 0xe1, 0x17, 0x78, 0x3f, 0x0b, 0x98, 0xe8, 0x3e,
  0xec, 0x47, 0x62, 0xbf, 0xe6, 0x98, 0xce, 0xbd, 0x67, 0xc9, 0xa2, 0xbf,
  0xc4, 0xb6, 0x83, 0xbf, 0x56, 0x73, 0xec, 0x3e, 0xfa, 0xf7, 0x60, 0xbf,
  0x93, 0x45, 0x14, 0x3e, 0x3e, 0x0d, 0xb9, 0x3e, 0x81, 0x9d, 0x3b, 0x3e,
  0xa8, 0xae, 0xda, 0xbe, 0x15, 0xbe, 0x98, 0xbf, 0x5c, 0xb4, 0xb1, 0xbe,
  0x00, 0x00, 0x00, 0x00, 0x46, 0xf0, 0xff, 0xff, 0x04, 0x00, 0x00, 0x00,
  0x00, 0x0e, 0x00, 0x00, 0xf9, 0xf8, 0xef, 0xf3, 0xf3, 0x0c, 0xc5, 0xfc,
  0x07, 0x0b, 0xf6, 0xe7, 0xfb, 0x06, 0xef, 0xf5, 0xfb, 0xee, 0x0d, 0xf6,
  0xc6, 0x00, 0xc6, 0x03, 0x13, 0x12, 0xfb, 0xff, 0x00, 0x0f, 0xec, 0x08,
  0x17, 0xf0, 0x27, 0x13, 0xd2, 0xdb, 0x02, 0xfe, 0x10, 0x0b, 0xf4, 0xf5,
  0x2b, 0x1e, 0xf1, 0x09, 0xfc, 0x02, 0x28, 0x0d, 0x0b, 0xe9, 0x0f, 0x0c,
  0x16, 0xe2, 0xe3, 0x12, 0x14, 0x17, 0x05, 0xc2, 0xfc, 0x08, 0xff, 0x0d,
  0x03, 0xd0, 0xe8, 0x16, 0x15, 0xba, 0xd2, 0x0c, 0x21, 0xfd, 0x11, 0xce,
  0x0a, 0x15, 0x0a, 0x05, 0x1b, 0xc8, 0xfb, 0xfc, 0x14, 0xc4, 0xcc, 0x26,
  0x02, 0xfa, 0x0a, 0xe3, 0xde, 0xf0, 0x0b, 0xf3, 0xfd, 0xd3, 0x27, 0x06,
  0x0d, 0xc9, 0xce, 0x04, 0x01, 0xe1, 0x01, 0xe8, 0xf4, 0xf4, 0x09, 0x15,
  0xfc, 0xf7, 0x22, 0x02, 0x11, 0xdd, 0x04, 0x09, 0x12, 0x00, 0xfa, 0xcb,
  0x11, 0x1b, 0x0c, 0x03, 0x0e, 0xf5, 0x16, 0x05, 0x14, 0xd9, 0xd8, 0x19,
  0x0f, 0xf7, 0x1b, 0xbc, 0xe6, 0x10, 0x09, 0x18, 0x1f, 0xdc, 0x13, 0x15,
  0x0d, 0xdb, 0xe0, 0x2c, 0x0a, 0xee, 0x15, 0xeb, 0xff, 0xe8, 0xd2, 0xe1,
  0x0a, 0x06, 0x43, 0xec, 0xe7, 0xe9, 0x14, 0xff, 0xe5, 0x0c, 0xf4, 0xd4,
  0xea, 0xbc, 0xcd, 0xea, 0xdb, 0xf4, 0x45, 0xd2, 0xdc, 0xde, 0x0c, 0xed,
  0xb0, 0xca, 0xb4, 0xc1, 0xd4, 0xa7, 0xa6, 0x03, 0xb9, 0xf7, 0x36, 0xd8,
  0xf4, 0xeb, 0xfa, 0xd7, 0xaa, 0xc4, 0xc8, 0xde, 0xf5, 0x0a, 0xf6, 0xf1,
  0x07, 0xfa, 0x07, 0xff, 0x06, 0xf0, 0xf5, 0xf0, 0x04, 0xf7, 0x01, 0xe0,
  0xf0, 0x05, 0xfc, 0x05, 0x05, 0xf8, 0x15, 0x05, 0xed, 0x08, 0x0f, 0xfa,
  0xfb, 0x08, 0xfb, 0x03, 0x00, 0xf2, 0x10, 0xd6, 0x0d, 0xf5, 0x35, 0x03,
  0xdb, 0x03, 0x17, 0xfa, 0x0c, 0xf4, 0xe9, 0x0d, 0x0b, 0x12, 0x01, 0xff,
  0x0f, 0x19, 0x1d, 0x0f, 0x0a, 0xfb, 0x20, 0x30, 0xff, 0x0d, 0xfe, 0xef,
  0xfa, 0xe2, 0xf6, 0x1c, 0x0b, 0xf4, 0x17, 0xfc, 0x0d, 0x04, 0x36, 0xeb,
  0xeb, 0xe1, 0xdf, 0xf8, 0xfc, 0xe8, 0xff, 0x0c, 0xda, 0x2b, 0x33, 0xf5,
  0x06, 0x18, 0x50, 0xf0, 0x0d, 0x0c, 0xeb, 0x06, 0x05, 0xe8, 0xf8, 0x15,
  0xd4, 0x1a, 0x23, 0xed, 0x03, 0x06, 0x1c, 0xe4, 0x06, 0xfb, 0xf1, 0xff,
  0x0a, 0xef, 0x0e, 0x0a, 0xdd, 0x20, 0x19, 0x08, 0x03, 0x17, 0x45, 0xe5,
  0x14, 0x22, 0xf2, 0x1b, 0x1e, 0xf0, 0x0c, 0xf5, 0xe9, 0x0a, 0x08, 0x0a,
  0xea, 0x1b, 0x34, 0xe1, 0x0a, 0x10, 0x02, 0x0e, 0x04, 0xc8, 0x04, 0x15,
  0xd9, 0x13, 0x19, 0xec, 0x0c, 0xe9, 0x4a, 0xbd, 0xef, 0xff, 0xcf, 0x1a,
  0x13, 0xd3, 0x02, 0x06, 0xe1, 0x00, 0xc3, 0xe8, 0x0a, 0x06, 0x35, 0xcf,
  0xeb, 0xfe, 0xe6, 0x1c, 0x00, 0xba, 0x02, 0x1a, 0xd6, 0xe1, 0xc0, 0xa7,
  0xe2, 0xf1, 0xde, 0xb7, 0xcc, 0xe4, 0xdc, 0x07, 0xf3, 0xf2, 0xdc, 0x22,
  0xec, 0xf0, 0x9f, 0xab, 0xfd, 0xfc, 0xc4, 0xd3, 0xe1, 0xdc, 0xf8, 0x12,
  0x04, 0xf2, 0xfe, 0x3e, 0xe7, 0xec, 0x81, 0xa8, 0xf5, 0xf6, 0xc4, 0xdb,
  0x01, 0x03, 0x0c, 0x19, 0x0e, 0x0d, 0x08, 0x04, 0xf7, 0x0a, 0x07, 0x03,
  0xff, 0x11, 0xf1, 0x04, 0x11, 0x0b, 0x05, 0xfe, 0xff, 0x09, 0x02, 0x0a,
  0x03, 0x02, 0x2b, 0x00, 0xf3, 0xff, 0x0d, 0x0b, 0x09, 0xea, 0xfe, 0x02,
  0xff, 0xfc, 0xf6, 0xe8, 0xfc, 0xfb, 0x30, 0x0f, 0xe1, 0xe7, 0xff, 0xfa,
  0xe5, 0xdb, 0xf8, 0xec, 0xf2, 0x24, 0x03, 0x0b, 0x20, 0xf7, 0x09, 0x0d,
  0xfa, 0xfc, 0x1a, 0x26, 0xe3, 0xdb, 0x09, 0xf2, 0x18, 0xd4, 0x0f, 0x0b,
  0x02, 0xe6, 0x11, 0xfb, 0x09, 0xf5, 0x12, 0xea, 0x01, 0xe6, 0xdf, 0x0b,
  0xf5, 0xd6, 0x0c, 0x20, 0xdc, 0x1d, 0x27, 0x03, 0x05, 0xe8, 0x2d, 0xe6,
  0x04, 0x03, 0xe0, 0x00, 0xfb, 0xed, 0x12, 0x1b, 0xe6, 0x27, 0x2f, 0x05,
  0x17, 0x0b, 0x30, 0xe7, 0x1f, 0x01, 0xea, 0x0c, 0x17, 0xde, 0x12, 0x07,
  0xd4, 0x2f, 0xf7, 0xf3, 0x13, 0x0f, 0x42, 0xf8, 0x0c, 0x20, 0xfd, 0x28,
  0x26, 0xe0, 0xed, 0xf6, 0xe7, 0x1b, 0xc4, 0xdd, 0xf0, 0x1d, 0x2d, 0xdf,
  0xf7, 0x19, 0xf8, 0x28, 0x03, 0xf2, 0xea, 0xfc, 0x09, 0xf2, 0xe3, 0xde,
  0xe2, 0xf4, 0x17, 0xd4, 0xe0, 0xde, 0x05, 0x26, 0x14, 0x04, 0xe5, 0x04,
  0x16, 0xd9, 0xb9, 0xba, 0xc7, 0xdf, 0xf4, 0xd7, 0xd7, 0xdd, 0xf9, 0x14,
  0xe0, 0xee, 0xdb, 0x0f, 0xf1, 0xeb, 0xe8, 0xa4, 0xd8, 0xe2, 0xdf, 0xda,
  0xbb, 0xd8, 0xed, 0x0d, 0xf0, 0xdc, 0xd2, 0x14, 0xf5, 0xe1, 0xe6, 0xa3,
  0xc8, 0x02, 0xed, 0xc1, 0xed, 0xd8, 0xe5, 0xfc, 0x1b, 0xe3, 0xfa, 0xef,
  0xec, 0xef, 0xdb, 0x9b, 0xde, 0xf4, 0xe6, 0xe8, 0xf0, 0xed, 0x00, 0x0c,
  0x1e, 0xf0, 0x0b, 0x02, 0xfc, 0x1d, 0x02, 0xff, 0xfd, 0x0a, 0x00, 0xf3,
  0xfa, 0x10, 0xfd, 0x12, 0xf0, 0x05, 0xfa, 0x13, 0x11, 0xfb, 0x2b, 0x1a,
  0x08, 0xed, 0x03, 0x08, 0x0b, 0xf2, 0x11, 0x06, 0xef, 0x1d, 0xe5, 0x25,
  0x6b, 0xe4, 0x4c, 0xfc, 0x04, 0xe4, 0xfc, 0x17, 0xe6, 0xd6, 0xff, 0xf2,
  0xdb, 0x1d, 0xc9, 0x0b, 0x65, 0xea, 0x20, 0xef, 0xdc, 0xe4, 0x05, 0x07,
  0xef, 0xd3, 0x0d, 0xf1, 0xe1, 0x0c, 0xea, 0xc7, 0x20, 0x16, 0xf1, 0xf3,
  0xcb, 0xfd, 0xfa, 0xff, 0xe4, 0xe3, 0x0d, 0x0f, 0xec, 0x03, 0xcc, 0xd9,
  0xf8, 0x2a, 0x06, 0x01, 0xef, 0x44, 0x10, 0xfa, 0xed, 0x0f, 0x01, 0x29,
  0x18, 0xfe, 0xee, 0xe1, 0xfd, 0x11, 0xf3, 0xec, 0xce, 0x1c, 0x4f, 0xf4,
  0xd9, 0xf8, 0x10, 0x33, 0xf1, 0xf2, 0xfe, 0x07, 0x15, 0x2c, 0x13, 0xed,
  0xe2, 0x13, 0x31, 0xf1, 0xf6, 0xf7, 0xf8, 0x3f, 0xef, 0xfe, 0x03, 0x07,
  0x1a, 0x0b, 0xed, 0xf2, 0x06, 0x03, 0x12, 0xf2, 0x00, 0x01, 0x00, 0x2b,
  0xed, 0xee, 0xdf, 0xf5, 0x04, 0x1b, 0xa8, 0x01, 0xf8, 0x27, 0x07, 0xea,
  0x03, 0x18, 0xff, 0x50, 0x03, 0xe5, 0xf5, 0xda, 0xfd, 0x30, 0xb0, 0xe1,
  0xed, 0x56, 0x31, 0xf3, 0x05, 0x42, 0x09, 0x42, 0x26, 0xf8, 0xf3, 0xef,
  0xf8, 0x2d, 0xd5, 0xea, 0xdb, 0x1b, 0x25, 0xea, 0xf2, 0x18, 0x06, 0x2b,
  0x17, 0x00, 0xe6, 0x04, 0xe5, 0x46, 0xe5, 0xe6, 0x04, 0x41, 0x33, 0xd9,
  0x17, 0x39, 0xf8, 0x37, 0x28, 0x34, 0x15, 0xef, 0x11, 0x3a, 0xd4, 0x3c,
  0xf8, 0x27, 0x42, 0x2f, 0x28, 0x3b, 0x27, 0x2f, 0x10, 0x09, 0x03, 0x09,
  0x15, 0x0d, 0x0f, 0x05, 0x04, 0x0b, 0x04, 0x0a, 0x07, 0xff, 0x05, 0x15,
  0x00, 0x05, 0x01, 0x04, 0x02, 0xfb, 0x10, 0xfc, 0xf8, 0xe8, 0x01, 0x00,
  0xfb, 0xf3, 0xf4, 0x05, 0xf5, 0x17, 0xf8, 0x36, 0x5b, 0xe5, 0x18, 0xf1,
  0x03, 0xd6, 0xdd, 0x02, 0xdf, 0xda, 0x0c, 0xef, 0xda, 0x16, 0xcd, 0xe3,
  0x47, 0x04, 0xf6, 0xef, 0xd0, 0xe3, 0xdd, 0x01, 0xf0, 0xdf, 0x10, 0xeb,
  0xf7, 0x0b, 0xc7, 0xc5, 0x21, 0xfb, 0xdd, 0xea, 0xb1, 0x0a, 0xe4, 0x11,
  0xe8, 0x01, 0x05, 0x11, 0xd9, 0x10, 0xcf, 0xc5, 0x23, 0xf6, 0xe8, 0x0b,
  0xce, 0xff, 0xd6, 0x0e, 0xd3, 0x04, 0x08, 0x0c, 0xda, 0xf8, 0xcc, 0xd6,
  0x17, 0xf5, 0xc3, 0xe3, 0xc6, 0x03, 0xfd, 0x14, 0xc3, 0xe3, 0x1c, 0x24,
  0x00, 0x05, 0xdf, 0xcb, 0x0c, 0xf9, 0xc8, 0xf5, 0xc4, 0x00, 0xf3, 0xf8,
  0xe6, 0xf3, 0xfb, 0x18, 0xd6, 0x08, 0xf6, 0xf5, 0x18, 0xf0, 0xa1, 0xff,
  0xf0, 0x10, 0xc3, 0x13, 0xec, 0xf9, 0x10, 0x21, 0xf1, 0x17, 0xde, 0xba,
  0x0a, 0x02, 0xa4, 0x00, 0xbb, 0x21, 0xd3, 0xfc, 0xf9, 0x1a, 0x18, 0x28,
  0xe0, 0xfe, 0xf1, 0xb9, 0x02, 0x07, 0xfc, 0xec, 0xda, 0x32, 0xe1, 0xfc,
  0xfe, 0x18, 0x14, 0x20, 0x19, 0x0f, 0x06, 0xf6, 0x06, 0x10, 0x10, 0x07,
  0xfe, 0x2d, 0x1e, 0xfe, 0x04, 0x1f, 0x04, 0x1c, 0x03, 0x13, 0x03, 0xff,
  0xf6, 0x25, 0x09, 0x19, 0x2a, 0x13, 0x2f, 0xfe, 0x29, 0x36, 0x16, 0x22,
  0x1a, 0x20, 0x1c, 0x01, 0xfd, 0x2c, 0x04, 0x46, 0xf5, 0x20, 0x46, 0x35,
  0x22, 0x40, 0x08, 0x1f, 0x11, 0xf7, 0xf9, 0x06, 0x02, 0xfd, 0x02, 0x10,
  0x07, 0x03, 0x03, 0x0a, 0x00, 0xf6, 0xef, 0x05, 0x07, 0x0f, 0xf2, 0xfa,
  0x00, 0x06, 0xe4, 0x04, 0x00, 0x2e, 0xfd, 0x01, 0xf4, 0x0c, 0xf6, 0x09,
  0x12, 0xe2, 0xfb, 0xcb, 0x9c, 0x1d, 0xc9, 0x14, 0x02, 0x25, 0x11, 0xfb,
  0x22, 0x21, 0xfc, 0x1b, 0x29, 0xeb, 0x21, 0xf3, 0xad, 0x23, 0xed, 0x05,
  0x0c, 0x24, 0x1e, 0xf1, 0x14, 0x2d, 0xdb, 0x05, 0x18, 0xdd, 0x0f, 0x3a,
  0xd6, 0xfb, 0x20, 0x02, 0x3c, 0x11, 0x32, 0x07, 0x22, 0x08, 0xe5, 0xfc,
  0x31, 0xff, 0x19, 0x22, 0xe1, 0x15, 0x34, 0x15, 0x0e, 0x0b, 0x2a, 0x04,
  0x19, 0x0f, 0xfe, 0xe4, 0x1f, 0xff, 0x37, 0x22, 0xe0, 0x0d, 0x37, 0x21,
  0x1d, 0x08, 0x07, 0xe5, 0x38, 0x35, 0xfa, 0xf9, 0x10, 0xfe, 0x2b, 0x20,
  0xee, 0x1a, 0x19, 0x13, 0x34, 0x0d, 0x13, 0xec, 0x1d, 0x08, 0xeb, 0xcf,
  0x29, 0xfa, 0x21, 0x0d, 0xf9, 0x0c, 0x59, 0x16, 0x1c, 0xe0, 0x36, 0xf3,
  0x1f, 0x0c, 0xeb, 0xcf, 0x18, 0xe4, 0x16, 0x33, 0xf9, 0x01, 0x73, 0x03,
  0x28, 0xdd, 0x3e, 0x05, 0xff, 0xf9, 0xfd, 0xd3, 0x30, 0x04, 0xff, 0x22,
  0xfc, 0xe0, 0x34, 0x0c, 0x32, 0xe6, 0x12, 0x07, 0x07, 0xe8, 0xf1, 0xd5,
  0xf0, 0xf3, 0x15, 0x17, 0x09, 0xd9, 0x12, 0xfa, 0x27, 0xeb, 0xf4, 0xf9,
  0xfc, 0xf5, 0xf9, 0xeb, 0xee, 0x07, 0xfb, 0x01, 0x1d, 0xbf, 0xfe, 0xfe,
  0xf1, 0xe1, 0xb0, 0x13, 0xf5, 0xc6, 0x00, 0xf1, 0xdb, 0xee, 0xf8, 0x0d,
  0x04, 0xc5, 0xf5, 0xce, 0x08, 0xf1, 0xbb, 0xca, 0xc1, 0xd4, 0xfb, 0xe2,
  0x07, 0x01, 0xfc, 0x02, 0xfb, 0xfa, 0x07, 0xee, 0xfe, 0xf5, 0x00, 0x10,
  0xf5, 0xfd, 0xfd, 0x00, 0xf4, 0x00, 0x00, 0xfc, 0x03, 0xfd, 0xfc, 0x01,
  0x01, 0xe9, 0x15, 0x03, 0x04, 0xf3, 0x00, 0xf6, 0xef, 0x22, 0x15, 0x23,
  0x3f, 0xdd, 0xf6, 0x11, 0x2b, 0xf4, 0x05, 0x1c, 0xf2, 0xf7, 0xff, 0x07,
  0xd6, 0x0a, 0xca, 0xd9, 0x19, 0xf7, 0xf5, 0xea, 0xed, 0x08, 0x10, 0x08,
  0xfc, 0xfd, 0x0c, 0x04, 0x00, 0x21, 0xcd, 0xc0, 0x19, 0x0e, 0xda, 0x00,
  0xc4, 0x0f, 0x01, 0x12, 0xf0, 0x04, 0x18, 0x05, 0xf0, 0xfe, 0xc6, 0xe4,
  0x1d, 0x03, 0xeb, 0xe4, 0xd8, 0xfd, 0xf2, 0xfe, 0xdb, 0xec, 0x0c, 0x0d,
  0xdb, 0x08, 0xc5, 0xcd, 0x13, 0xee, 0xd9, 0xe9, 0xcc, 0x16, 0xee, 0x02,
  0xcc, 0xeb, 0xff, 0x1d, 0xe4, 0xf2, 0xd3, 0xd4, 0x1b, 0xdf, 0xfd, 0xef,
  0xd5, 0x0a, 0xd3, 0xf8, 0xf6, 0xf3, 0x03, 0x20, 0xcb, 0x25, 0xdb, 0xf5,
  0x11, 0xe8, 0xcb, 0x13, 0xeb, 0xfb, 0xdc, 0x22, 0xf4, 0xe8, 0x0f, 0x12,
  0xe0, 0x12, 0xdd, 0xce, 0x18, 0xf6, 0xd1, 0xf8, 0xbf, 0x1d, 0xeb, 0x1d,
  0xee, 0x0e, 0x14, 0x1f, 0xf8, 0x0d, 0x00, 0xd6, 0x09, 0x01, 0x18, 0x07,
  0xda, 0x0f, 0xee, 0x06, 0xff, 0x08, 0x11, 0x17, 0x17, 0x33, 0x0f, 0x15,
  0x0f, 0x25, 0x09, 0x32, 0xfd, 0xfc, 0x0d, 0x23, 0x0f, 0x19, 0x18, 0xf6,
  0x22, 0x23, 0x2a, 0xfc, 0x1e, 0x21, 0x01, 0x41, 0x15, 0x0b, 0x1c, 0x06,
  0x23, 0x40, 0x05, 0x08, 0x1f, 0x1b, 0x22, 0xf5, 0x1b, 0x2d, 0x28, 0x6a,
  0x13, 0x18, 0x3c, 0x2b, 0x2d, 0x3b, 0x00, 0xf3, 0x0e, 0x0f, 0x07, 0x07,
  0x05, 0x1c, 0x00, 0x07, 0xff, 0x15, 0x17, 0x00, 0xff, 0x11, 0xff, 0xfa,
  0x02, 0x06, 0xf6, 0xf3, 0xf6, 0x00, 0xd5, 0xfa, 0x0f, 0xf9, 0xfd, 0xef,
  0xfc, 0x08, 0xed, 0xf6, 0x14, 0xdc, 0xfa, 0xfb, 0xb0, 0xfc, 0xc9, 0xf7,
  0x25, 0x0b, 0xf6, 0x02, 0x07, 0x1a, 0xec, 0xfb, 0x1c, 0xe3, 0x0e, 0x1b,
  0xbf, 0xf7, 0xee, 0x06, 0x13, 0x10, 0x00, 0xdb, 0x24, 0x10, 0xde, 0x10,
  0xff, 0xfc, 0x0b, 0x11, 0xed, 0x06, 0xf9, 0x0b, 0x1c, 0xf4, 0xf4, 0x0b,
  0x18, 0x16, 0x13, 0xdd, 0x18, 0x0d, 0x00, 0xff, 0x04, 0xe1, 0xfa, 0x07,
  0x10, 0xd5, 0xef, 0xfc, 0x0f, 0xed, 0xf9, 0xd1, 0x11, 0x0e, 0x0c, 0x0c,
  0x19, 0xf3, 0x00, 0x15, 0x12, 0xd7, 0xd5, 0x1e, 0x09, 0xfd, 0x0c, 0xcb,
  0xfb, 0x02, 0x02, 0xf4, 0x0c, 0xe7, 0xfb, 0x0d, 0x19, 0xd1, 0xdb, 0x14,
  0x03, 0xe1, 0x11, 0xc3, 0x11, 0x0f, 0xf0, 0x0c, 0x13, 0xec, 0xfc, 0x1a,
  0xf6, 0xd5, 0x0b, 0x1b, 0x08, 0xf7, 0xef, 0xd2, 0x0c, 0x04, 0x0b, 0xf5,
  0x02, 0xf6, 0x38, 0x01, 0x18, 0xdc, 0x0b, 0x09, 0x02, 0x01, 0x0b, 0xa7,
  0x06, 0x21, 0x06, 0x24, 0xfa, 0xd8, 0x60, 0x16, 0x1e, 0xd7, 0xde, 0x2d,
  0x0c, 0xf7, 0x05, 0xcc, 0x07, 0x38, 0x1f, 0x1e, 0x1b, 0x01, 0x38, 0x3b,
  0x2b, 0xf1, 0x00, 0x33, 0x31, 0x14, 0x1e, 0xc5, 0xe3, 0x1a, 0x25, 0x03,
  0x28, 0xeb, 0x33, 0x24, 0xfa, 0xc4, 0x03, 0x3f, 0xf2, 0xd6, 0x06, 0xcf,
  0xbd, 0xdd, 0xf6, 0x11, 0x03, 0xe0, 0x57, 0xd4, 0x1d, 0xdc, 0x13, 0xe7,
  0xbc, 0xdd, 0xbe, 0xd3, 0xee, 0xfc, 0xf7, 0xf5, 0x0c, 0xf9, 0xff, 0xfe,
  0xf3, 0xfc, 0xef, 0xfe, 0xf6, 0xff, 0x03, 0xf6, 0x0a, 0xfe, 0xf7, 0xf4,
  0x0e, 0x10, 0x15, 0x07, 0xea, 0x0d, 0x08, 0xff, 0xfb, 0x07, 0xfd, 0x04,
  0xfe, 0xfb, 0x00, 0xc3, 0xef, 0x14, 0x2c, 0xf7, 0xc9, 0x14, 0x0c, 0xf5,
  0x12, 0x1a, 0x02, 0x12, 0xf8, 0xf8, 0x13, 0x08, 0x02, 0x1f, 0x21, 0x11,
  0xf1, 0x03, 0x3a, 0x1c, 0xdb, 0x0e, 0xf1, 0xf8, 0x00, 0xe9, 0x01, 0xfd,
  0xfc, 0x07, 0x39, 0xfe, 0x0c, 0xf3, 0x45, 0xf4, 0xf9, 0xf4, 0xe9, 0x09,
  0x10, 0xe4, 0xfe, 0x05, 0xe4, 0x2f, 0x30, 0x01, 0x17, 0x2e, 0x3b, 0xef,
  0x1a, 0x25, 0xea, 0x19, 0x07, 0xe7, 0x11, 0x19, 0xd5, 0x2a, 0x2c, 0x03,
  0x14, 0x2c, 0x39, 0xd2, 0x09, 0x07, 0xee, 0x15, 0x01, 0xd3, 0x07, 0x2c,
  0xe2, 0x23, 0x2d, 0xf2, 0x2b, 0x13, 0x48, 0xdd, 0x11, 0x12, 0xd1, 0x06,
  0x16, 0xd4, 0x00, 0x0e, 0xd9, 0x32, 0x29, 0xea, 0x00, 0x0a, 0x4f, 0xdb,
  0x04, 0x0c, 0xe8, 0x0b, 0x03, 0xbf, 0x05, 0x15, 0xdd, 0x20, 0x32, 0xdb,
  0x12, 0x01, 0x4d, 0xd7, 0x09, 0x03, 0xd3, 0x1b, 0x1e, 0xd0, 0x02, 0x20,
  0xd1, 0x26, 0xbf, 0xef, 0x0d, 0xf7, 0x39, 0xd0, 0x11, 0x04, 0xc5, 0x04,
  0xfb, 0xb3, 0xf6, 0x16, 0xd3, 0xd8, 0xd3, 0x87, 0xca, 0xf5, 0xf2, 0xb1,
  0xc4, 0xea, 0xea, 0x0e, 0xe6, 0xef, 0xd0, 0x32, 0xe0, 0xe6, 0x9b, 0xae,
  0xf8, 0x00, 0xb3, 0xd1, 0xe0, 0xe3, 0x02, 0x05, 0xf0, 0x08, 0xff, 0x35,
  0xf7, 0xd0, 0x99, 0xb8, 0xf8, 0xee, 0xae, 0xe2, 0xfb, 0xd6, 0x20, 0x11,
  0xfd, 0x08, 0x05, 0x02, 0xf7, 0x0a, 0xfb, 0x00, 0xfa, 0xf6, 0xe9, 0x0b,
  0xfc, 0x06, 0xfe, 0x04, 0xfa, 0xfc, 0xfb, 0x05, 0xf2, 0xf8, 0xf2, 0xfe,
  0x06, 0x00, 0x00, 0xf7, 0xfd, 0x0c, 0xec, 0x17, 0xf6, 0x15, 0xe4, 0x15,
  0x03, 0xf6, 0xe2, 0xdf, 0x26, 0x0d, 0xed, 0x20, 0xe1, 0xec, 0xe9, 0xf8,
  0xfa, 0xf9, 0xea, 0x00, 0xf8, 0xfa, 0x01, 0xee, 0x0e, 0xed, 0xed, 0xe6,
  0xfa, 0x06, 0xe3, 0x11, 0x09, 0x15, 0x11, 0xfd, 0x00, 0xf5, 0xf8, 0x02,
  0x0c, 0xee, 0xfe, 0x11, 0x14, 0x12, 0x17, 0xfe, 0x00, 0x01, 0x03, 0xfa,
  0x19, 0xdd, 0xfe, 0x0a, 0x07, 0xd6, 0xe5, 0x1d, 0xf8, 0xe9, 0xff, 0xea,
  0x10, 0x24, 0x0b, 0xf8, 0x25, 0xd4, 0xf1, 0x0a, 0xfa, 0xe6, 0xc6, 0x30,
  0x15, 0xfa, 0x2c, 0xdb, 0xf7, 0x27, 0xf7, 0x00, 0x31, 0xe7, 0xf3, 0x0a,
  0xfc, 0xfb, 0xbb, 0x06, 0x02, 0xf5, 0x16, 0xf3, 0xe3, 0x20, 0xf6, 0x1d,
  0x1c, 0xe1, 0xf4, 0x0f, 0x02, 0xe1, 0xe2, 0x28, 0x0b, 0xe7, 0x17, 0xe6,
  0x12, 0x2a, 0x04, 0x07, 0x14, 0xe0, 0xee, 0x14, 0xfa, 0x02, 0xe2, 0x23,
  0x0b, 0x00, 0x1d, 0xf5, 0xea, 0x20, 0x13, 0xfc, 0x18, 0xf0, 0x66, 0x14,
  0x26, 0x06, 0xdc, 0x1a, 0x0f, 0xfc, 0x34, 0x01, 0x01, 0x2d, 0x15, 0xf2,
  0x16, 0x36, 0x47, 0x75, 0x37, 0xff, 0x20, 0x54, 0x42, 0x28, 0x2c, 0xde,
  0x2b, 0x0b, 0x2b, 0xf8, 0x0c, 0x13, 0x67, 0x4d, 0x23, 0xf9, 0x2c, 0x2c,
  0x16, 0x28, 0xee, 0xbe, 0xfb, 0xe7, 0x1e, 0x04, 0xdf, 0x25, 0x76, 0x45,
  0x1f, 0xfe, 0x49, 0x11, 0x04, 0x0c, 0xc3, 0xce, 0xef, 0x0a, 0xec, 0x03,
  0x07, 0xfa, 0x05, 0x01, 0x09, 0xe7, 0x03, 0x02, 0xfb, 0xf2, 0x02, 0xfa,
  0x0e, 0xff, 0xf7, 0xfa, 0x00, 0x00, 0xf3, 0x09, 0x01, 0x1c, 0x04, 0x0a,
  0xfa, 0x13, 0x07, 0xf7, 0x0e, 0xe8, 0x1d, 0xbb, 0xc3, 0x25, 0xe0, 0x19,
  0xd5, 0x2b, 0x0b, 0xf0, 0x1c, 0x0e, 0x01, 0x01, 0x0d, 0x0a, 0x22, 0xfd,
  0xc2, 0x13, 0xf9, 0x1c, 0x0f, 0x22, 0x21, 0x02, 0x0d, 0x28, 0xf7, 0x08,
  0x03, 0xde, 0x11, 0x26, 0xd9, 0x09, 0x26, 0x10, 0x15, 0x02, 0x3c, 0xea,
  0xfc, 0xfc, 0xe9, 0xff, 0x28, 0xe5, 0x0a, 0x1b, 0xd7, 0x18, 0x3b, 0xfc,
  0x13, 0x0b, 0x51, 0xf2, 0x0c, 0x0c, 0xf5, 0x02, 0x0b, 0xf2, 0x2f, 0x28,
  0xf2, 0x27, 0x56, 0x11, 0x21, 0x02, 0x1c, 0xea, 0x22, 0x20, 0xf2, 0x05,
  0x01, 0xf3, 0x21, 0x26, 0xf0, 0x15, 0x21, 0x15, 0x2b, 0x12, 0x3f, 0xff,
  0x14, 0x19, 0xf2, 0xeb, 0x21, 0xf0, 0xfe, 0x1e, 0xed, 0x12, 0x52, 0x07,
  0x02, 0xfd, 0x43, 0xee, 0x0b, 0xfd, 0xde, 0xe6, 0x02, 0xe0, 0x14, 0x1d,
  0xeb, 0x0a, 0x55, 0xfe, 0x21, 0xdc, 0x33, 0xe3, 0x06, 0x03, 0xf8, 0xeb,
  0x12, 0xf1, 0x12, 0x33, 0xfd, 0xf1, 0x0b, 0xff, 0x1d, 0xf0, 0x1a, 0x00,
  0x01, 0xd4, 0xf8, 0xec, 0xf0, 0xff, 0x0e, 0x27, 0x0c, 0xd7, 0xf6, 0xfb,
  0x14, 0xf3, 0xe7, 0x04, 0xf2, 0xe2, 0xfb, 0x00, 0xe7, 0xee, 0x1a, 0x1f,
  0xfe, 0xe1, 0xc9, 0x05, 0xf5, 0xfa, 0xa7, 0xfe, 0x12, 0xd7, 0x05, 0xe4,
  0xe4, 0xe1, 0xff, 0x26, 0x0e, 0xc9, 0xe8, 0xe1, 0xfd, 0xeb, 0xa2, 0xd0,
  0xf4, 0xcd, 0x12, 0xfd, 0xfc, 0xfd, 0xfb, 0x06, 0x04, 0xf4, 0x0a, 0x02,
  0xf9, 0xf9, 0x03, 0x02, 0xfc, 0x04, 0x03, 0xff, 0x07, 0x05, 0xf8, 0xf7,
  0x03, 0x15, 0xe0, 0x07, 0xfd, 0x22, 0x08, 0x03, 0xfd, 0x08, 0x06, 0xff,
  0x18, 0xe3, 0x03, 0xe0, 0xa8, 0x1c, 0xd3, 0x0a, 0xe6, 0x39, 0x0b, 0xef,
  0x0b, 0x30, 0x0c, 0x19, 0x24, 0xe7, 0x2b, 0x10, 0xc3, 0x19, 0xef, 0x10,
  0x1d, 0x1c, 0x2a, 0xf0, 0x2c, 0x1f, 0xf6, 0x1e, 0x19, 0xe7, 0x20, 0x2c,
  0xe1, 0xff, 0x16, 0x15, 0x26, 0x13, 0x33, 0x01, 0x0d, 0x10, 0xeb, 0xf6,
  0x24, 0xf5, 0x1e, 0x2b, 0xfa, 0x1d, 0x1a, 0xf6, 0x0e, 0x02, 0x25, 0xff,
  0x36, 0x18, 0xed, 0xf8, 0x1c, 0x00, 0x1c, 0x2d, 0xfa, 0x11, 0x39, 0x16,
  0x37, 0x03, 0xf2, 0xfa, 0x20, 0x2a, 0xf4, 0xf8, 0xfd, 0x03, 0x0f, 0x30,
  0xf8, 0x18, 0x23, 0x18, 0x30, 0xfa, 0x24, 0xfa, 0x16, 0x19, 0xf7, 0xe3,
  0x26, 0xf1, 0x09, 0x12, 0xf0, 0x0c, 0x3f, 0x10, 0x10, 0xf4, 0x3b, 0xf4,
  0x09, 0x01, 0xf5, 0xe4, 0x1c, 0xea, 0x0a, 0x15, 0xfd, 0x12, 0x52, 0xfc,
  0x2a, 0xd5, 0x2d, 0xf6, 0x10, 0xfb, 0xff, 0xc8, 0x1f, 0x0f, 0x12, 0x20,
  0xfd, 0xf2, 0x1d, 0x0c, 0x2e, 0xda, 0x14, 0x05, 0x01, 0xcd, 0x02, 0xe9,
  0xe7, 0xed, 0x10, 0x04, 0xff, 0xda, 0x0f, 0x07, 0x0e, 0xe5, 0xf5, 0x05,
  0xfa, 0xdc, 0x0b, 0xe2, 0xe8, 0xfa, 0x15, 0x09, 0x1b, 0xcd, 0xf0, 0x05,
  0xeb, 0xd9, 0xe2, 0x0b, 0x00, 0xe0, 0xfd, 0xe0, 0xda, 0xed, 0xea, 0x12,
  0xff, 0xe2, 0x04, 0xdc, 0xfb, 0xd7, 0xb8, 0xde, 0xdc, 0xdc, 0xfb, 0xf3,
  0xf9, 0x04, 0xfa, 0x03, 0x02, 0x02, 0x09, 0xf7, 0x00, 0xf7, 0x00, 0x03,
  0x0a, 0x03, 0x13, 0x05, 0xfc, 0x0b, 0x00, 0x04, 0x08, 0xed, 0x30, 0x07,
  0x0a, 0xf0, 0x0d, 0x0e, 0x07, 0xf6, 0x08, 0x05, 0xf4, 0x19, 0x04, 0x2a,
  0x68, 0xd7, 0x47, 0x01, 0xea, 0xe6, 0xed, 0x15, 0x07, 0xd7, 0x15, 0xee,
  0xc0, 0x07, 0xd6, 0xf7, 0x4d, 0x08, 0x1c, 0x02, 0xda, 0xef, 0xf3, 0x18,
  0xd6, 0xe4, 0x17, 0xef, 0xea, 0x04, 0xd8, 0xd2, 0x28, 0x17, 0x08, 0xfb,
  0xd2, 0x02, 0xf8, 0x00, 0xdd, 0x05, 0xff, 0x2b, 0xef, 0xff, 0xf9, 0xf8,
  0x02, 0x2d, 0x09, 0x06, 0xfe, 0x38, 0x30, 0xff, 0xf7, 0x0d, 0xff, 0x2b,
  0xeb, 0xf9, 0xf7, 0xf9, 0xf1, 0x0f, 0xf7, 0xec, 0xfc, 0x1c, 0x4f, 0xf6,
  0xf3, 0xf7, 0x09, 0x3b, 0xee, 0x01, 0x01, 0xfe, 0xfb, 0x20, 0x0b, 0xfa,
  0xf7, 0x19, 0x3b, 0xf7, 0x04, 0x19, 0xf4, 0x34, 0x0e, 0x13, 0x12, 0xf1,
  0xfe, 0x24, 0xe9, 0xf3, 0xf0, 0x39, 0xfa, 0xf1, 0xfb, 0x1b, 0x07, 0x37,
  0x01, 0xe6, 0xfd, 0x02, 0xf3, 0x07, 0xcc, 0xfd, 0xea, 0x28, 0xec, 0xe7,
  0xff, 0x03, 0x01, 0x4e, 0xea, 0xf3, 0xef, 0xeb, 0xf1, 0x27, 0xba, 0xee,
  0xf2, 0x23, 0x16, 0xf2, 0x03, 0x1d, 0xf5, 0x32, 0x13, 0xf5, 0x02, 0xe9,
  0xfa, 0x1b, 0xc4, 0xe1, 0xf1, 0x26, 0x1d, 0xe7, 0xed, 0x05, 0x04, 0x3a,
  0x1d, 0xf6, 0xf2, 0x10, 0xdf, 0x37, 0xd5, 0xf1, 0xf2, 0x30, 0x17, 0xda,
  0x1b, 0x29, 0xfa, 0x40, 0x32, 0x43, 0x27, 0xff, 0xfb, 0x21, 0xc2, 0x43,
  0x05, 0x3a, 0x42, 0x27, 0x5f, 0x47, 0x25, 0x31, 0x19, 0x10, 0x10, 0x01,
  0x03, 0x04, 0x0e, 0x02, 0x00, 0xf8, 0xf9, 0x13, 0x12, 0x15, 0x08, 0x0a,
  0x1b, 0x05, 0xee, 0x07, 0xf6, 0xff, 0xc8, 0xf8, 0xf7, 0x1a, 0xfd, 0xf4,
  0x00, 0x07, 0xfd, 0x0b, 0x0f, 0xf8, 0xfe, 0xf7, 0x96, 0x12, 0xbf, 0xf0,
  0x0d, 0x15, 0xf6, 0xea, 0x18, 0x26, 0x00, 0xfb, 0x1e, 0xe8, 0x12, 0x0f,
  0xb7, 0x02, 0xe8, 0x02, 0x05, 0x1d, 0xf4, 0xd7, 0x11, 0x22, 0xfb, 0x18,
  0x0c, 0xf8, 0x1f, 0x12, 0xd4, 0xf4, 0x05, 0x1c, 0x1d, 0xfa, 0x0b, 0x03,
  0x14, 0x10, 0xf6, 0xe7, 0x0e, 0x0b, 0xfd, 0xf5, 0x03, 0xe3, 0x0d, 0x04,
  0x15, 0xb6, 0xea, 0x1e, 0x1e, 0x02, 0x09, 0xc1, 0xfe, 0x0a, 0x0b, 0x03,
  0x0a, 0xe2, 0x00, 0x11, 0x0e, 0xd6, 0xd0, 0x04, 0x24, 0x12, 0x00, 0xcb,
  0xff, 0x01, 0x06, 0xfe, 0x00, 0xca, 0x06, 0x0e, 0x0f, 0xc3, 0xd9, 0x13,
  0x0d, 0xd8, 0x06, 0xc5, 0x0d, 0x05, 0xf2, 0x11, 0x05, 0xe3, 0x18, 0x0c,
  0x10, 0xcc, 0xfb, 0x1e, 0xfa, 0xef, 0xf3, 0xc6, 0x17, 0x08, 0x0d, 0x0b,
  0x19, 0xf8, 0x3b, 0x22, 0x0a, 0xe3, 0xfa, 0x21, 0x03, 0x01, 0x19, 0xa3,
  0x04, 0x13, 0x08, 0x12, 0x0b, 0xe1, 0x56, 0x0c, 0x20, 0xdf, 0xdc, 0x23,
  0x0c, 0xf3, 0x04, 0xd1, 0xea, 0x1e, 0x06, 0x09, 0x0b, 0xed, 0x31, 0x31,
  0x1d, 0xde, 0xf5, 0x21, 0x23, 0xff, 0x13, 0xcf, 0xe6, 0x1f, 0x0a, 0x0a,
  0x23, 0xdb, 0x25, 0x34, 0xfb, 0xbe, 0xf6, 0x24, 0xec, 0xd9, 0xfe, 0xda,
  0xdb, 0xe8, 0xeb, 0x12, 0x06, 0xe0, 0x4b, 0xd8, 0xfa, 0xd7, 0xea, 0xf5,
  0xc0, 0xdd, 0xcd, 0xd5, 0xf6, 0x05, 0xfd, 0xfe, 0x0d, 0xef, 0x05, 0x09,
  0xfd, 0xf7, 0xf7, 0xfe, 0xfb, 0x03, 0x0b, 0xf8, 0xf4, 0xf9, 0xfe, 0x08,
  0xfd, 0xfb, 0xfe, 0xf6, 0xf9, 0xe3, 0x11, 0x01, 0x06, 0xfb, 0xf7, 0x08,
  0x00, 0x0f, 0xf8, 0x42, 0x51, 0xee, 0xf8, 0x04, 0x47, 0xde, 0xdd, 0x18,
  0xf6, 0xeb, 0xfb, 0x06, 0xe3, 0x10, 0xf5, 0x04, 0x26, 0xea, 0xee, 0xfb,
  0xf8, 0x03, 0xea, 0x12, 0x0d, 0x04, 0xfe, 0xf4, 0x09, 0x02, 0xee, 0xdf,
  0x19, 0x0f, 0xd8, 0xf4, 0xe9, 0x0a, 0xd2, 0xf9, 0xf5, 0x01, 0x09, 0x1b,
  0xe6, 0x0f, 0xe0, 0xf9, 0x1e, 0xed, 0xe9, 0xeb, 0xf0, 0xf7, 0xd8, 0x04,
  0xdb, 0xeb, 0x05, 0xfb, 0x0c, 0x06, 0xf1, 0xf2, 0x25, 0xe9, 0xcb, 0x07,
  0xf3, 0x00, 0xcd, 0x22, 0x03, 0xed, 0x0d, 0x01, 0x08, 0x20, 0xeb, 0xd4,
  0x28, 0xed, 0xd1, 0x18, 0xc8, 0xfb, 0xc6, 0x2b, 0xf1, 0x00, 0x21, 0x03,
  0xda, 0x13, 0xe8, 0xf6, 0x19, 0xd7, 0xcd, 0x04, 0x0b, 0xef, 0xc1, 0xff,
  0xea, 0xfb, 0x18, 0x02, 0x12, 0x1b, 0xf4, 0x05, 0x11, 0xfc, 0xd2, 0x12,
  0xe7, 0x0f, 0xdb, 0x23, 0x0d, 0x0b, 0x0b, 0x02, 0xf4, 0x29, 0x11, 0xe9,
  0x20, 0x04, 0x2a, 0x17, 0xfb, 0x14, 0xdc, 0x09, 0xff, 0xfe, 0x2c, 0x02,
  0x1c, 0x36, 0x0d, 0x08, 0x32, 0x24, 0x2a, 0x69, 0xfe, 0x19, 0xf8, 0x34,
  0x30, 0x15, 0x29, 0xfe, 0x0c, 0x0a, 0x2d, 0xf8, 0x11, 0x30, 0x48, 0x38,
  0x0b, 0x11, 0x61, 0x18, 0x29, 0x2d, 0x0a, 0xfc, 0x29, 0x0f, 0x26, 0x02,
  0xf1, 0x24, 0x54, 0x5c, 0x07, 0x00, 0x61, 0x29, 0x23, 0x29, 0xe7, 0xe6,
  0x03, 0x02, 0x07, 0x04, 0xfa, 0x07, 0x02, 0x02, 0xfe, 0x05, 0x11, 0x03,
  0x03, 0xf6, 0x02, 0x04, 0xfe, 0xef, 0xfb, 0xfe, 0xee, 0x11, 0xc7, 0x00,
  0x05, 0x13, 0xf7, 0xff, 0x05, 0x09, 0xec, 0x13, 0x0d, 0xeb, 0xf8, 0xed,
  0xaa, 0x05, 0xbf, 0x04, 0x0a, 0x1c, 0xf8, 0xfe, 0x10, 0x22, 0xfb, 0x01,
  0x1b, 0xf3, 0x1e, 0x24, 0xbd, 0xec, 0x02, 0x10, 0x14, 0x09, 0xf9, 0xdc,
  0x0d, 0x08, 0xf5, 0x13, 0x08, 0x03, 0x0e, 0x25, 0xdc, 0xf6, 0x00, 0x22,
  0x1d, 0xeb, 0xed, 0x0d, 0x1b, 0x0f, 0x10, 0xd8, 0x16, 0x00, 0x12, 0x1d,
  0x12, 0xd1, 0x07, 0x07, 0x06, 0xc3, 0xda, 0x0a, 0x10, 0xf7, 0x03, 0xb9,
  0x10, 0x1a, 0x03, 0x12, 0xfa, 0xdb, 0xf8, 0x09, 0x1c, 0xc7, 0xc1, 0x14,
  0x1d, 0x0b, 0x06, 0xce, 0xff, 0x08, 0x05, 0x06, 0x0d, 0xd7, 0x0d, 0x0f,
  0x0f, 0xd0, 0xd3, 0xf8, 0x05, 0xed, 0x07, 0xd8, 0xf7, 0x09, 0x04, 0x05,
  0xfe, 0xfb, 0x10, 0x12, 0x17, 0xc7, 0x07, 0x0e, 0x15, 0xec, 0xfd, 0xcf,
  0x0e, 0x0b, 0x19, 0x14, 0x1d, 0xde, 0x46, 0x18, 0x0f, 0xde, 0x09, 0x25,
  0x00, 0xfe, 0x14, 0xae, 0x00, 0x1d, 0x0a, 0x1f, 0x14, 0xdd, 0x4e, 0x18,
  0x24, 0xd8, 0xd3, 0x29, 0x14, 0xde, 0x14, 0xc9, 0xef, 0x10, 0x09, 0xf7,
  0x1c, 0x01, 0x23, 0x2b, 0x2c, 0xf7, 0x0c, 0x1d, 0x09, 0xf6, 0x04, 0xd7,
  0xfc, 0x03, 0xf6, 0xf7, 0x1d, 0xea, 0x26, 0x10, 0xf0, 0xce, 0xfa, 0x24,
  0xca, 0xd1, 0xe5, 0xb0, 0xd7, 0xb9, 0xd7, 0x01, 0xf7, 0xdc, 0x39, 0xe8,
  0xf5, 0xe2, 0xfe, 0xe3, 0xc0, 0xd5, 0xc8, 0xcf, 0xef, 0x08, 0xf0, 0xf0,
  0x04, 0xf4, 0xf6, 0xf7, 0x04, 0xfe, 0xfc, 0xfb, 0xf7, 0xfd, 0x06, 0xfc,
  0x00, 0x00, 0x00, 0x00, 0x56, 0xfe, 0xff, 0xff, 0x04, 0x00, 0x00, 0x00,
  0x20, 0x00, 0x00, 0x00, 0x52, 0x88, 0x9d, 0xbe, 0xf4, 0xc7, 0x9f, 0xbe,
  0x63, 0xed, 0x8a, 0xbe, 0x64, 0xbb, 0x09, 0xbe, 0x33, 0x5f, 0x79, 0xbe,
  0x08, 0xb2, 0x6c, 0xbe, 0x6a, 0x20, 0x67, 0xbe, 0x15, 0x8f, 0xb3, 0xbe,
  0x00, 0x00, 0x00, 0x00, 0x86, 0xfe, 0xff, 0xff, 0x04, 0x00, 0x00, 0x00,
  0x40, 0x00, 0x00, 0x00, 0x0a, 0xc7, 0xc1, 0x3d, 0xde, 0x96, 0xa7, 0xbe,
  0x73, 0x00, 0xbf, 0xbd, 0x25, 0xdf, 0x09, 0xbe, 0x25, 0x7f, 0x45, 0xbe,
  0x49, 0xd1, 0x4a, 0x3e, 0xe5, 0xa0, 0xe4, 0x3e, 0xd2, 0x29, 0xcd, 0xbe,
  0xc5, 0x09, 0x5a, 0xbe, 0x3b, 0x1c, 0x36, 0x3e, 0xdc, 0x5b, 0x9b, 0x3e,
  0x28, 0x20, 0x3a, 0xbf, 0x98, 0xa9, 0x6f, 0xbe, 0x0c, 0xb6, 0xa9, 0x3d,
  0x59, 0x16, 0x27, 0xbe, 0xd0, 0xc2, 0x6b, 0x3e, 0x00, 0x00, 0x00, 0x00,
  0xd6, 0xfe, 0xff, 0xff, 0x04, 0x00, 0x00, 0x00, 0x40, 0x00, 0x00, 0x00,
  0x2c, 0x52, 0xc7, 0xbe, 0xdf, 0x04, 0x22, 0x3e, 0x3a, 0x59, 0x02, 0x3e,
  0xed, 0x42, 0xba, 0x3e, 0x15, 0xfa, 0x08, 0x3e, 0xe7, 0xe6, 0x85, 0xbe,
  0xc9, 0xd7, 0x8a, 0x3c, 0xbc, 0xbb, 0xdb, 0xbe, 0x6a, 0x9d, 0x31, 0x3e,
  0x50, 0x7a, 0x42, 0xbe, 0x5b, 0xa7, 0x4c, 0xbd, 0x79, 0x2a, 0x48, 0xbe,
  0xdc, 0x68, 0xab, 0x3e, 0xac, 0x81, 0xce, 0xbe, 0x6e, 0xa7, 0x96, 0xbd,
  0x9c, 0xf4, 0xcf, 0xbe, 0x00, 0x00, 0x00, 0x00, 0x26, 0xff, 0xff, 0xff,
  0x04, 0x00, 0x00, 0x00, 0x0c, 0x00, 0x00, 0x00, 0x80, 0x5d, 0x80, 0xbf,
  0xab, 0x5d, 0x37, 0x3f, 0xdd, 0xbf, 0xa1, 0x3e, 0x00, 0x00, 0x00, 0x00,
  0x00, 0x00, 0x00, 0x00, 0x46, 0xff, 0xff, 0xff, 0x04, 0x00, 0x00, 0x00,
  0x08, 0x00, 0x00, 0x00, 0xff, 0xff, 0xff, 0xff, 0xe0, 0x00, 0x00, 0x00,
  0x00, 0x00, 0x00, 0x00, 0xb0, 0xf5, 0xff, 0xff, 0x00, 0x00, 0x00, 0x00,
  0x00, 0x00, 0x00, 0x00, 0x00, 0x00, 0x00, 0x00, 0xc0, 0xf5, 0xff, 0xff,
  0x0f, 0x00, 0x00, 0x00, 0x4d, 0x4c, 0x49, 0x52, 0x20, 0x43, 0x6f, 0x6e,
  0x76, 0x65, 0x72, 0x74, 0x65, 0x64, 0x2e, 0x00, 0x01, 0x00, 0x00, 0x00,
  0x14, 0x00, 0x00, 0x00, 0x00, 0x00, 0x0e, 0x00, 0x18, 0x00, 0x04, 0x00,
  0x08, 0x00, 0x0c, 0x00, 0x10, 0x00, 0x14, 0x00, 0x0e, 0x00, 0x00, 0x00,
  0x84, 0x02, 0x00, 0x00, 0x78, 0x02, 0x00, 0x00, 0x6c, 0x02, 0x00, 0x00,
  0x14, 0x00, 0x00, 0x00, 0x04, 0x00, 0x00, 0x00, 0x04, 0x00, 0x00, 0x00,
  0x6d, 0x61, 0x69, 0x6e, 0x00, 0x00, 0x00, 0x00, 0x08, 0x00, 0x00, 0x00,
  0x08, 0x02, 0x00, 0x00, 0xa4, 0x01, 0x00, 0x00, 0x54, 0x01, 0x00, 0x00,
  0x04, 0x01, 0x00, 0x00, 0xdc, 0x00, 0x00, 0x00, 0x88, 0x00, 0x00, 0x00,
  0x40, 0x00, 0x00, 0x00, 0x04, 0x00, 0x00, 0x00, 0x86, 0xfe, 0xff, 0xff,
  0x00, 0x00, 0x00, 0x09, 0x04, 0x00, 0x00, 0x00, 0x24, 0x00, 0x00, 0x00,
  0x18, 0x00, 0x00, 0x00, 0x0c, 0x00, 0x00, 0x00, 0x00, 0x00, 0x06, 0x00,
  0x08, 0x00, 0x04, 0x00, 0x06, 0x00, 0x00, 0x00, 0x00, 0x00, 0x80, 0x3f,
  0x01, 0x00, 0x00, 0x00, 0x11, 0x00, 0x00, 0x00, 0x01, 0x00, 0x00, 0x00,
  0x10, 0x00, 0x00, 0x00, 0xca, 0xff, 0xff, 0xff, 0x00, 0x00, 0x00, 0x08,
  0x03, 0x00, 0x00, 0x00, 0x18, 0x00, 0x00, 0x00, 0x0c, 0x00, 0x00, 0x00,
  0x04, 0x00, 0x00, 0x00, 0x88, 0xf6, 0xff, 0xff, 0x01, 0x00, 0x00, 0x00,
  0x10, 0x00, 0x00, 0x00, 0x03, 0x00, 0x00, 0x00, 0x0f, 0x00, 0x00, 0x00,
  0x07, 0x00, 0x00, 0x00, 0x02, 0x00, 0x00, 0x00, 0x00, 0x00, 0x0e, 0x00,
  0x18, 0x00, 0x08, 0x00, 0x0c, 0x00, 0x10, 0x00, 0x07, 0x00, 0x14, 0x00,
  0x0e, 0x00, 0x00, 0x00, 0x00, 0x00, 0x00, 0x08, 0x03, 0x00, 0x00, 0x00,
  0x28, 0x00, 0x00, 0x00, 0x1c, 0x00, 0x00, 0x00, 0x10, 0x00, 0x00, 0x00,
  0x0c, 0x00, 0x08, 0x00, 0x06, 0x00, 0x00, 0x00, 0x00, 0x00, 0x07, 0x00,
  0x0c, 0x00, 0x00, 0x00, 0x00, 0x00, 0x01, 0x01, 0x01, 0x00, 0x00, 0x00,
  0x0f, 0x00, 0x00, 0x00, 0x03, 0x00, 0x00, 0x00, 0x0e, 0x00, 0x00, 0x00,
  0x06, 0x00, 0x00, 0x00, 0x03, 0x00, 0x00, 0x00, 0x00, 0x00, 0x0a, 0x00,
  0x10, 0x00, 0x04, 0x00, 0x08, 0x00, 0x0c, 0x00, 0x0a, 0x00, 0x00, 0x00,
  0x02, 0x00, 0x00, 0x00, 0x10, 0x00, 0x00, 0x00, 0x04, 0x00, 0x00, 0x00,
  0x01, 0x00, 0x00, 0x00, 0x0e, 0x00, 0x00, 0x00, 0x02, 0x00, 0x00, 0x00,
  0x0d, 0x00, 0x00, 0x00, 0x01, 0x00, 0x00, 0x00, 0x76, 0xff, 0xff, 0xff,
  0x00, 0x00, 0x00, 0x05, 0x01, 0x00, 0x00, 0x00, 0x38, 0x00, 0x00, 0x00,
  0x2c, 0x00, 0x00, 0x00, 0x14, 0x00, 0x00, 0x00, 0x00, 0x00, 0x0e, 0x00,
  0x14, 0x00, 0x00, 0x00, 0x04, 0x00, 0x08, 0x00, 0x0c, 0x00, 0x10, 0x00,
  0x0e, 0x00, 0x00, 0x00, 0x01, 0x00, 0x00, 0x00, 0x03, 0x00, 0x00, 0x00,
  0x01, 0x00, 0x00, 0x00, 0x03, 0x00, 0x00, 0x00, 0x01, 0x00, 0x00, 0x00,
  0x0d, 0x00, 0x00, 0x00, 0x01, 0x00, 0x00, 0x00, 0x0c, 0x00, 0x00, 0x00,
  0x62, 0xff, 0xff, 0xff, 0x00, 0x00, 0x00, 0x01, 0x24, 0x00, 0x00, 0x00,
  0x18, 0x00, 0x00, 0x00, 0x04, 0x00, 0x00, 0x00, 0x54, 0xff, 0xff, 0xff,
  0x00, 0x00, 0x00, 0x01, 0x01, 0x00, 0x00, 0x00, 0x01, 0x00, 0x00, 0x00,
  0x01, 0x00, 0x00, 0x00, 0x0c, 0x00, 0x00, 0x00, 0x03, 0x00, 0x00, 0x00,
  0x0b, 0x00, 0x00, 0x00, 0x09, 0x00, 0x00, 0x00, 0x04, 0x00, 0x00, 0x00,
  0x00, 0x00, 0x0e, 0x00, 0x1a, 0x00, 0x08, 0x00, 0x0c, 0x00, 0x10, 0x00,
  0x07, 0x00, 0x14, 0x00, 0x0e, 0x00, 0x00, 0x00, 0x00, 0x00, 0x00, 0x05,
  0x01, 0x00, 0x00, 0x00, 0x3c, 0x00, 0x00, 0x00, 0x30, 0x00, 0x00, 0x00,
  0x14, 0x00, 0x00, 0x00, 0x00, 0x00, 0x0e, 0x00, 0x18, 0x00, 0x07, 0x00,
  0x08, 0x00, 0x0c, 0x00, 0x10, 0x00, 0x14, 0x00, 0x0e, 0x00, 0x00, 0x00,
  0x00, 0x00, 0x00, 0x01, 0x06, 0x00, 0x00, 0x00, 0x03, 0x00, 0x00, 0x00,
  0x06, 0x00, 0x00, 0x00, 0x03, 0x00, 0x00, 0x00, 0x01, 0x00, 0x00, 0x00,
  0x0b, 0x00, 0x00, 0x00, 0x01, 0x00, 0x00, 0x00, 0x0a, 0x00, 0x00, 0x00,
  0x00, 0x00, 0x0e, 0x00, 0x14, 0x00, 0x00, 0x00, 0x08, 0x00, 0x0c, 0x00,
  0x07, 0x00, 0x10, 0x00, 0x0e, 0x00, 0x00, 0x00, 0x00, 0x00, 0x00, 0x01,
  0x30, 0x00, 0x00, 0x00, 0x24, 0x00, 0x00, 0x00, 0x10, 0x00, 0x00, 0x00,
  0x0c, 0x00, 0x10, 0x00, 0x00, 0x00, 0x08, 0x00, 0x0c, 0x00, 0x07, 0x00,
  0x0c, 0x00, 0x00, 0x00, 0x00, 0x00, 0x00, 0x01, 0x01, 0x00, 0x00, 0x00,
  0x01, 0x00, 0x00, 0x00, 0x01, 0x00, 0x00, 0x00, 0x0a, 0x00, 0x00, 0x00,
  0x03, 0x00, 0x00, 0x00, 0x00, 0x00, 0x00, 0x00, 0x08, 0x00, 0x00, 0x00,
  0x05, 0x00, 0x00, 0x00, 0x01, 0x00, 0x00, 0x00, 0x11, 0x00, 0x00, 0x00,
  0x01, 0x00, 0x00, 0x00, 0x00, 0x00, 0x00, 0x00, 0x12, 0x00, 0x00, 0x00,
  0x58, 0x07, 0x00, 0x00, 0xfc, 0x06, 0x00, 0x00, 0x90, 0x06, 0x00, 0x00,
  0x24, 0x06, 0x00, 0x00, 0xc8, 0x05, 0x00, 0x00, 0x6c, 0x05, 0x00, 0x00,
  0xfc, 0x04, 0x00, 0x00, 0xb4, 0x04, 0x00, 0x00, 0x64, 0x04, 0x00, 0x00,
  0x14, 0x04, 0x00, 0x00, 0x4c, 0x03, 0x00, 0x00, 0xdc, 0x02, 0x00, 0x00,
  0x0c, 0x02, 0x00, 0x00, 0x9c, 0x01, 0x00, 0x00, 0x44, 0x01, 0x00, 0x00,
  0xc0, 0x00, 0x00, 0x00, 0x4c, 0x00, 0x00, 0x00, 0x04, 0x00, 0x00, 0x00,
  0x04, 0xf9, 0xff, 0xff, 0x34, 0x00, 0x00, 0x00, 0x12, 0x00, 0x00, 0x00,
  0x1c, 0x00, 0x00, 0x00, 0x14, 0x00, 0x00, 0x00, 0x04, 0x00, 0x00, 0x00,
  0x02, 0x00, 0x00, 0x00, 0xff, 0xff, 0xff, 0xff, 0x03, 0x00, 0x00, 0x00,
  0xe8, 0xf8, 0xff, 0xff, 0x08, 0x00, 0x00, 0x00, 0x49, 0x64, 0x65, 0x6e,
  0x74, 0x69, 0x74, 0x79, 0x00, 0x00, 0x00, 0x00, 0x02, 0x00, 0x00, 0x00,
  0x01, 0x00, 0x00, 0x00, 0x03, 0x00, 0x00, 0x00, 0x48, 0xf9, 0xff, 0xff,
  0x60, 0x00, 0x00, 0x00, 0x11, 0x00, 0x00, 0x00, 0x1c, 0x00, 0x00, 0x00,
  0x14, 0x00, 0x00, 0x00, 0x04, 0x00, 0x00, 0x00, 0x02, 0x00, 0x00, 0x00,
  0xff, 0xff, 0xff, 0xff, 0x03, 0x00, 0x00, 0x00, 0x2c, 0xf9, 0xff, 0xff,
  0x34, 0x00, 0x00, 0x00, 0x73, 0x65, 0x71, 0x75, 0x65, 0x6e, 0x74, 0x69,
  0x61, 0x6c, 0x2f, 0x64, 0x65, 0x6e, 0x73, 0x65, 0x5f, 0x31, 0x2f, 0x4d,
  0x61, 0x74, 0x4d, 0x75, 0x6c, 0x3b, 0x73, 0x65, 0x71, 0x75, 0x65, 0x6e,
  0x74, 0x69, 0x61, 0x6c, 0x2f, 0x64, 0x65, 0x6e, 0x73, 0x65, 0x5f, 0x31,
  0x2f, 0x42, 0x69, 0x61, 0x73, 0x41, 0x64, 0x64, 0x00, 0x00, 0x00, 0x00,
  0x02, 0x00, 0x00, 0x00, 0x01, 0x00, 0x00, 0x00, 0x03, 0x00, 0x00, 0x00,
  0xb8, 0xf9, 0xff, 0xff, 0x70, 0x00, 0x00, 0x00, 0x10, 0x00, 0x00, 0x00,
  0x1c, 0x00, 0x00, 0x00, 0x14, 0x00, 0x00, 0x00, 0x04, 0x00, 0x00, 0x00,
  0x02, 0x00, 0x00, 0x00, 0xff, 0xff, 0xff, 0xff, 0x10, 0x00, 0x00, 0x00,
  0x9c, 0xf9, 0xff, 0xff, 0x46, 0x00, 0x00, 0x00, 0x73, 0x65, 0x71, 0x75,
  0x65, 0x6e, 0x74, 0x69, 0x61, 0x6c, 0x2f, 0x64, 0x65, 0x6e, 0x73, 0x65,
  0x2f, 0x4d, 0x61, 0x74, 0x4d, 0x75, 0x6c, 0x3b, 0x73, 0x65, 0x71, 0x75,
  0x65, 0x6e, 0x74, 0x69, 0x61, 0x6c, 0x2f, 0x64, 0x65, 0x6e, 0x73, 0x65,
  0x2f, 0x52, 0x65, 0x6c, 0x75, 0x3b, 0x73, 0x65, 0x71, 0x75, 0x65, 0x6e,
  0x74, 0x69, 0x61, 0x6c, 0x2f, 0x64, 0x65, 0x6e, 0x73, 0x65, 0x2f, 0x42,
  0x69, 0x61, 0x73, 0x41, 0x64, 0x64, 0x00, 0x00, 0x02, 0x00, 0x00, 0x00,
  0x01, 0x00, 0x00, 0x00, 0x10, 0x00, 0x00, 0x00, 0x38, 0xfa, 0xff, 0xff,
  0x44, 0x00, 0x00, 0x00, 0x0f, 0x00, 0x00, 0x00, 0x1c, 0x00, 0x00, 0x00,
  0x14, 0x00, 0x00, 0x00, 0x04, 0x00, 0x00, 0x00, 0x02, 0x00, 0x00, 0x00,
  0xff, 0xff, 0xff, 0xff, 0xe0, 0x00, 0x00, 0x00, 0x1c, 0xfa, 0xff, 0xff,
  0x1a, 0x00, 0x00, 0x00, 0x73, 0x65, 0x71, 0x75, 0x65, 0x6e, 0x74, 0x69,
  0x61, 0x6c, 0x2f, 0x66, 0x6c, 0x61, 0x74, 0x74, 0x65, 0x6e, 0x2f, 0x52,
  0x65, 0x73, 0x68, 0x61, 0x70, 0x65, 0x00, 0x00, 0x02, 0x00, 0x00, 0x00,
  0x01, 0x00, 0x00, 0x00, 0xe0, 0x00, 0x00, 0x00, 0x8c, 0xfa, 0xff, 0xff,
  0x54, 0x00, 0x00, 0x00, 0x0e, 0x00, 0x00, 0x00, 0x24, 0x00, 0x00, 0x00,
  0x1c, 0x00, 0x00, 0x00, 0x04, 0x00, 0x00, 0x00, 0x04, 0x00, 0x00, 0x00,
  0xff, 0xff, 0xff, 0xff, 0x0e, 0x00, 0x00, 0x00, 0x01, 0x00, 0x00, 0x00,
  0x10, 0x00, 0x00, 0x00, 0x78, 0xfa, 0xff, 0xff, 0x22, 0x00, 0x00, 0x00,
  0x73, 0x65, 0x71, 0x75, 0x65, 0x6e, 0x74, 0x69, 0x61, 0x6c, 0x2f, 0x6d,
  0x61, 0x78, 0x5f, 0x70, 0x6f, 0x6f, 0x6c, 0x69, 0x6e, 0x67, 0x32, 0x64,
  0x5f, 0x31, 0x2f, 0x4d, 0x61, 0x78, 0x50, 0x6f, 0x6f, 0x6c, 0x00, 0x00,
  0x04, 0x00, 0x00, 0x00, 0x01, 0x00, 0x00, 0x00, 0x0e, 0x00, 0x00, 0x00,
  0x01, 0x00, 0x00, 0x00, 0x10, 0x00, 0x00, 0x00, 0xf8, 0xfa, 0xff, 0xff,
  0xb4, 0x00, 0x00, 0x00, 0x0d, 0x00, 0x00, 0x00, 0x24, 0x00, 0x00, 0x00,
  0x1c, 0x00, 0x00, 0x00, 0x04, 0x00, 0x00, 0x00, 0x04, 0x00, 0x00, 0x00,
  0xff, 0xff, 0xff, 0xff, 0x2a, 0x00, 0x00, 0x00, 0x01, 0x00, 0x00, 0x00,
  0x10, 0x00, 0x00, 0x00, 0xe4, 0xfa, 0xff, 0xff, 0x83, 0x00, 0x00, 0x00,
  0x73, 0x65, 0x71, 0x75, 0x65, 0x6e, 0x74, 0x69, 0x61, 0x6c, 0x2f, 0x63,
  0x6f, 0x6e, 0x76, 0x32, 0x64, 0x5f, 0x31, 0x2f, 0x52, 0x65, 0x6c, 0x75,
  0x3b, 0x73, 0x65, 0x71, 0x75, 0x65, 0x6e, 0x74, 0x69, 0x61, 0x6c, 0x2f,
  0x63, 0x6f, 0x6e, 0x76, 0x32, 0x64, 0x5f, 0x31, 0x2f, 0x42, 0x69, 0x61,
  0x73, 0x41, 0x64, 0x64, 0x3b, 0x73, 0x65, 0x71, 0x75, 0x65, 0x6e, 0x74,
  0x69, 0x61, 0x6c, 0x2f, 0x63, 0x6f, 0x6e, 0x76, 0x32, 0x64, 0x5f, 0x31,
  0x2f, 0x43, 0x6f, 0x6e, 0x76, 0x32, 0x44, 0x3b, 0x73, 0x65, 0x71, 0x75,
  0x65, 0x6e, 0x74, 0x69, 0x61, 0x6c, 0x2f, 0x63, 0x6f, 0x6e, 0x76, 0x32,
  0x64, 0x5f, 0x31, 0x2f, 0x42, 0x69, 0x61, 0x73, 0x41, 0x64, 0x64, 0x2f,
  0x52, 0x65, 0x61, 0x64, 0x56, 0x61, 0x72, 0x69, 0x61, 0x62, 0x6c, 0x65,
  0x4f, 0x70, 0x2f, 0x72, 0x65, 0x73, 0x6f, 0x75, 0x72, 0x63, 0x65, 0x00,
  0x04, 0x00, 0x00, 0x00, 0x01, 0x00, 0x00, 0x00, 0x2a, 0x00, 0x00, 0x00,
  0x01, 0x00, 0x00, 0x00, 0x10, 0x00, 0x00, 0x00, 0xc4, 0xfb, 0xff, 0xff,
  0x54, 0x00, 0x00, 0x00, 0x0c, 0x00, 0x00, 0x00, 0x24, 0x00, 0x00, 0x00,
  0x1c, 0x00, 0x00, 0x00, 0x04, 0x00, 0x00, 0x00, 0x04, 0x00, 0x00, 0x00,
  0xff, 0xff, 0xff, 0xff, 0x2a, 0x00, 0x00, 0x00, 0x01, 0x00, 0x00, 0x00,
  0x08, 0x00, 0x00, 0x00, 0xb0, 0xfb, 0xff, 0xff, 0x20, 0x00, 0x00, 0x00,
  0x73, 0x65, 0x71, 0x75, 0x65, 0x6e, 0x74, 0x69, 0x61, 0x6c, 0x2f, 0x6d,
  0x61, 0x78, 0x5f, 0x70, 0x6f, 0x6f, 0x6c, 0x69, 0x6e, 0x67, 0x32, 0x64,
  0x2f, 0x4d, 0x61, 0x78, 0x50, 0x6f, 0x6f, 0x6c, 0x00, 0x00, 0x00, 0x00,
  0x04, 0x00, 0x00, 0x00, 0x01, 0x00, 0x00, 0x00, 0x2a, 0x00, 0x00, 0x00,
  0x01, 0x00, 0x00, 0x00, 0x08, 0x00, 0x00, 0x00, 0x30, 0xfc, 0xff, 0xff,
  0xac, 0x00, 0x00, 0x00, 0x0b, 0x00, 0x00, 0x00, 0x24, 0x00, 0x00, 0x00,
  0x1c, 0x00, 0x00, 0x00, 0x04, 0x00, 0x00, 0x00, 0x04, 0x00, 0x00, 0x00,
  0xff, 0xff, 0xff, 0xff, 0x80, 0x00, 0x00, 0x00, 0x06, 0x00, 0x00, 0x00,
  0x08, 0x00, 0x00, 0x00, 0x1c, 0xfc, 0xff, 0xff, 0x7b, 0x00, 0x00, 0x00,
  0x73, 0x65, 0x71, 0x75, 0x65, 0x6e, 0x74, 0x69, 0x61, 0x6c, 0x2f, 0x63,
  0x6f, 0x6e, 0x76, 0x32, 0x64, 0x2f, 0x52, 0x65, 0x6c, 0x75, 0x3b, 0x73,
  0x65, 0x71, 0x75, 0x65, 0x6e, 0x74, 0x69, 0x61, 0x6c, 0x2f, 0x63, 0x6f,
  0x6e, 0x76, 0x32, 0x64, 0x2f, 0x42, 0x69, 0x61, 0x73, 0x41, 0x64, 0x64,
  0x3b, 0x73, 0x65, 0x71, 0x75, 0x65, 0x6e, 0x74, 0x69, 0x61, 0x6c, 0x2f,
  0x63, 0x6f, 0x6e, 0x76, 0x32, 0x64, 0x2f, 0x43, 0x6f, 0x6e, 0x76, 0x32,
  0x44, 0x3b, 0x73, 0x65, 0x71, 0x75, 0x65, 0x6e, 0x74, 0x69, 0x61, 0x6c,
  0x2f, 0x63, 0x6f, 0x6e, 0x76, 0x32, 0x64, 0x2f, 0x42, 0x69, 0x61, 0x73,
  0x41, 0x64, 0x64, 0x2f, 0x52, 0x65, 0x61, 0x64, 0x56, 0x61, 0x72, 0x69,
  0x61, 0x62, 0x6c, 0x65, 0x4f, 0x70, 0x2f, 0x72, 0x65, 0x73, 0x6f, 0x75,
  0x72, 0x63, 0x65, 0x00, 0x04, 0x00, 0x00, 0x00, 0x01, 0x00, 0x00, 0x00,
  0x80, 0x00, 0x00, 0x00, 0x06, 0x00, 0x00, 0x00, 0x08, 0x00, 0x00, 0x00,
  0xae, 0xfd, 0xff, 0xff, 0x34, 0x00, 0x00, 0x00, 0x0a, 0x00, 0x00, 0x00,
  0x0c, 0x00, 0x00, 0x00, 0x04, 0x00, 0x00, 0x00, 0xc8, 0xfc, 0xff, 0xff,
  0x1a, 0x00, 0x00, 0x00, 0x73, 0x65, 0x71, 0x75, 0x65, 0x6e, 0x74, 0x69,
  0x61, 0x6c, 0x2f, 0x63, 0x6f, 0x6e, 0x76, 0x32, 0x64, 0x5f, 0x31, 0x2f,
  0x43, 0x6f, 0x6e, 0x76, 0x32, 0x44, 0x00, 0x00, 0x04, 0x00, 0x00, 0x00,
  0x10, 0x00, 0x00, 0x00, 0x04, 0x00, 0x00, 0x00, 0x01, 0x00, 0x00, 0x00,
  0x08, 0x00, 0x00, 0x00, 0xfa, 0xfd, 0xff, 0xff, 0x34, 0x00, 0x00, 0x00,
  0x09, 0x00, 0x00, 0x00, 0x0c, 0x00, 0x00, 0x00, 0x04, 0x00, 0x00, 0x00,
  0x14, 0xfd, 0xff, 0xff, 0x18, 0x00, 0x00, 0x00, 0x73, 0x65, 0x71, 0x75,
  0x65, 0x6e, 0x74, 0x69, 0x61, 0x6c, 0x2f, 0x63, 0x6f, 0x6e, 0x76, 0x32,
  0x64, 0x2f, 0x43, 0x6f, 0x6e, 0x76, 0x32, 0x44, 0x00, 0x00, 0x00, 0x00,
  0x04, 0x00, 0x00, 0x00, 0x08, 0x00, 0x00, 0x00, 0x04, 0x00, 0x00, 0x00,
  0x06, 0x00, 0x00, 0x00, 0x01, 0x00, 0x00, 0x00, 0x46, 0xfe, 0xff, 0xff,
  0x34, 0x00, 0x00, 0x00, 0x08, 0x00, 0x00, 0x00, 0x0c, 0x00, 0x00, 0x00,
  0x04, 0x00, 0x00, 0x00, 0x60, 0xfd, 0xff, 0xff, 0x19, 0x00, 0x00, 0x00,
  0x73, 0x65, 0x71, 0x75, 0x65, 0x6e, 0x74, 0x69, 0x61, 0x6c, 0x2f, 0x64,
  0x65, 0x6e, 0x73, 0x65, 0x5f, 0x31, 0x2f, 0x4d, 0x61, 0x74, 0x4d, 0x75,
  0x6c, 0x00, 0x00, 0x00, 0x02, 0x00, 0x00, 0x00, 0x03, 0x00, 0x00, 0x00,
  0x10, 0x00, 0x00, 0x00, 0x22, 0xfe, 0xff, 0xff, 0x00, 0x00, 0x00, 0x09,
  0x58, 0x00, 0x00, 0x00, 0x07, 0x00, 0x00, 0x00, 0x34, 0x00, 0x00, 0x00,
  0x10, 0x00, 0x00, 0x00, 0x0c, 0x00, 0x0c, 0x00, 0x00, 0x00, 0x00, 0x00,
  0x04, 0x00, 0x08, 0x00, 0x0c, 0x00, 0x00, 0x00, 0x14, 0x00, 0x00, 0x00,
  0x04, 0x00, 0x00, 0x00, 0x01, 0x00, 0x00, 0x00, 0x00, 0x00, 0x00, 0x00,
  0x00, 0x00, 0x00, 0x00, 0x01, 0x00, 0x00, 0x00, 0xb9, 0xa4, 0x24, 0x3c,
  0x17, 0x00, 0x00, 0x00, 0x73, 0x65, 0x71, 0x75, 0x65, 0x6e, 0x74, 0x69,
  0x61, 0x6c, 0x2f, 0x64, 0x65, 0x6e, 0x73, 0x65, 0x2f, 0x4d, 0x61, 0x74,
  0x4d, 0x75, 0x6c, 0x00, 0x02, 0x00, 0x00, 0x00, 0x10, 0x00, 0x00, 0x00,
  0xe0, 0x00, 0x00, 0x00, 0xf6, 0xfe, 0xff, 0xff, 0x4c, 0x00, 0x00, 0x00,
  0x06, 0x00, 0x00, 0x00, 0x0c, 0x00, 0x00, 0x00, 0x04, 0x00, 0x00, 0x00,
  0x10, 0xfe, 0xff, 0xff, 0x31, 0x00, 0x00, 0x00, 0x73, 0x65, 0x71, 0x75,
  0x65, 0x6e, 0x74, 0x69, 0x61, 0x6c, 0x2f, 0x63, 0x6f, 0x6e, 0x76, 0x32,
  0x64, 0x2f, 0x42, 0x69, 0x61, 0x73, 0x41, 0x64, 0x64, 0x2f, 0x52, 0x65,
  0x61, 0x64, 0x56, 0x61, 0x72, 0x69, 0x61, 0x62, 0x6c, 0x65, 0x4f, 0x70,
  0x2f, 0x72, 0x65, 0x73, 0x6f, 0x75, 0x72, 0x63, 0x65, 0x00, 0x00, 0x00,
  0x01, 0x00, 0x00, 0x00, 0x08, 0x00, 0x00, 0x00, 0x4e, 0xff, 0xff, 0xff,
  0x4c, 0x00, 0x00, 0x00, 0x05, 0x00, 0x00, 0x00, 0x0c, 0x00, 0x00, 0x00,
  0x04, 0x00, 0x00, 0x00, 0x68, 0xfe, 0xff, 0xff, 0x33, 0x00, 0x00, 0x00,
  0x73, 0x65, 0x71, 0x75, 0x65, 0x6e, 0x74, 0x69, 0x61, 0x6c, 0x2f, 0x63,
  0x6f, 0x6e, 0x76, 0x32, 0x64, 0x5f, 0x31, 0x2f, 0x42, 0x69, 0x61, 0x73,
  0x41, 0x64, 0x64, 0x2f, 0x52, 0x65, 0x61, 0x64, 0x56, 0x61, 0x72, 0x69,
  0x61, 0x62, 0x6c, 0x65, 0x4f, 0x70, 0x2f, 0x72, 0x65, 0x73, 0x6f, 0x75,
  0x72, 0x63, 0x65, 0x00, 0x01, 0x00, 0x00, 0x00, 0x10, 0x00, 0x00, 0x00,
  0xa6, 0xff, 0xff, 0xff, 0x4c, 0x00, 0x00, 0x00, 0x04, 0x00, 0x00, 0x00,
  0x0c, 0x00, 0x00, 0x00, 0x04, 0x00, 0x00, 0x00, 0xc0, 0xfe, 0xff, 0xff,
  0x30, 0x00, 0x00, 0x00, 0x73, 0x65, 0x71, 0x75, 0x65, 0x6e, 0x74, 0x69,
  0x61, 0x6c, 0x2f, 0x64, 0x65, 0x6e, 0x73, 0x65, 0x2f, 0x42, 0x69, 0x61,
  0x73, 0x41, 0x64, 0x64, 0x2f, 0x52, 0x65, 0x61, 0x64, 0x56, 0x61, 0x72,
  0x69, 0x61, 0x62, 0x6c, 0x65, 0x4f, 0x70, 0x2f, 0x72, 0x65, 0x73, 0x6f,
  0x75, 0x72, 0x63, 0x65, 0x00, 0x00, 0x00, 0x00, 0x01, 0x00, 0x00, 0x00,
  0x10, 0x00, 0x00, 0x00, 0x00, 0x00, 0x0e, 0x00, 0x14, 0x00, 0x04, 0x00,
  0x00, 0x00, 0x08, 0x00, 0x0c, 0x00, 0x10, 0x00, 0x0e, 0x00, 0x00, 0x00,
  0x4c, 0x00, 0x00, 0x00, 0x03, 0x00, 0x00, 0x00, 0x0c, 0x00, 0x00, 0x00,
  0x04, 0x00, 0x00, 0x00, 0x28, 0xff, 0xff, 0xff, 0x32, 0x00, 0x00, 0x00,
  0x73, 0x65, 0x71, 0x75, 0x65, 0x6e, 0x74, 0x69, 0x61, 0x6c, 0x2f, 0x64,
  0x65, 0x6e, 0x73, 0x65, 0x5f, 0x31, 0x2f, 0x42, 0x69, 0x61, 0x73, 0x41,
  0x64, 0x64, 0x2f, 0x52, 0x65, 0x61, 0x64, 0x56, 0x61, 0x72, 0x69, 0x61,
  0x62, 0x6c, 0x65, 0x4f, 0x70, 0x2f, 0x72, 0x65, 0x73, 0x6f, 0x75, 0x72,
  0x63, 0x65, 0x00, 0x00, 0x01, 0x00, 0x00, 0x00, 0x03, 0x00, 0x00, 0x00,
  0x00, 0x00, 0x0e, 0x00, 0x18, 0x00, 0x08, 0x00, 0x07, 0x00, 0x0c, 0x00,
  0x10, 0x00, 0x14, 0x00, 0x0e, 0x00, 0x00, 0x00, 0x00, 0x00, 0x00, 0x02,
  0x34, 0x00, 0x00, 0x00, 0x02, 0x00, 0x00, 0x00, 0x0c, 0x00, 0x00, 0x00,
  0x04, 0x00, 0x00, 0x00, 0x94, 0xff, 0xff, 0xff, 0x18, 0x00, 0x00, 0x00,
  0x73, 0x65, 0x71, 0x75, 0x65, 0x6e, 0x74, 0x69, 0x61, 0x6c, 0x2f, 0x66,
  0x6c, 0x61, 0x74, 0x74, 0x65, 0x6e, 0x2f, 0x43, 0x6f, 0x6e, 0x73, 0x74,
  0x00, 0x00, 0x00, 0x00, 0x01, 0x00, 0x00, 0x00, 0x02, 0x00, 0x00, 0x00,
  0x14, 0x00, 0x18, 0x00, 0x04, 0x00, 0x00, 0x00, 0x08, 0x00, 0x0c, 0x00,
  0x10, 0x00, 0x00, 0x00, 0x00, 0x00, 0x14, 0x00, 0x14, 0x00, 0x00, 0x00,
  0x44, 0x00, 0x00, 0x00, 0x01, 0x00, 0x00, 0x00, 0x28, 0x00, 0x00, 0x00,
  0x20, 0x00, 0x00, 0x00, 0x04, 0x00, 0x00, 0x00, 0x04, 0x00, 0x00, 0x00,
  0xff, 0xff, 0xff, 0xff, 0x80, 0x00, 0x00, 0x00, 0x06, 0x00, 0x00, 0x00,
  0x01, 0x00, 0x00, 0x00, 0x04, 0x00, 0x04, 0x00, 0x04, 0x00, 0x00, 0x00,
  0x0c, 0x00, 0x00, 0x00, 0x63, 0x6f, 0x6e, 0x76, 0x32, 0x64, 0x5f, 0x69,
  0x6e, 0x70, 0x75, 0x74, 0x00, 0x00, 0x00, 0x00, 0x04, 0x00, 0x00, 0x00,
  0x01, 0x00, 0x00, 0x00, 0x80, 0x00, 0x00, 0x00, 0x06, 0x00, 0x00, 0x00,
  0x01, 0x00, 0x00, 0x00, 0x05, 0x00, 0x00, 0x00, 0x60, 0x00, 0x00, 0x00,
  0x44, 0x00, 0x00, 0x00, 0x28, 0x00, 0x00, 0x00, 0x14, 0x00, 0x00, 0x00,
  0x04, 0x00, 0x00, 0x00, 0xd8, 0xff, 0xff, 0xff, 0x00, 0x00, 0x00, 0x19,
  0x19, 0x00, 0x00, 0x00, 0xcc, 0xff, 0xff, 0xff, 0x00, 0x00, 0x00, 0x09,
  0x09, 0x00, 0x00, 0x00, 0x09, 0x00, 0x00, 0x00, 0xf4, 0xff, 0xff, 0xff,
  0x00, 0x00, 0x00, 0x16, 0x16, 0x00, 0x00, 0x00, 0x0c, 0x00, 0x0c, 0x00,
  0x07, 0x00, 0x00, 0x00, 0x00, 0x00, 0x08, 0x00, 0x0c, 0x00, 0x00, 0x00,
  0x00, 0x00, 0x00, 0x11, 0x11, 0x00, 0x00, 0x00, 0x0c, 0x00, 0x10, 0x00,
  0x07, 0x00, 0x00, 0x00, 0x08, 0x00, 0x0c, 0x00, 0x0c, 0x00, 0x00, 0x00,
  0x00, 0x00, 0x00, 0x03, 0x05, 0x00, 0x00, 0x00, 0x03, 0x00, 0x00, 0x00
};
unsigned int model_quantized_tflite_len = 10080;
